{"<unk>": 0, "_": 1, "d": 2, "e": 3, "f": 4, "t": 5, "r": 6, "a": 7, "i": 8, "n": 9, "(": 10, ",": 11, "m": 12, "o": 13, "l": 14, "s": 15, "v": 16, "p": 17, "h": 18, "=": 19, "N": 20, "g": 21, "b": 22, "k": 23, "'": 24, "F": 25, ")": 26, ":": 27, "\n": 28, "\"": 29, "T": 30, "-": 31, "c": 32, ".": 33, "y": 34, "u": 35, "w": 36, "V": 37, "x": 38, "S": 39, "<": 40, ">": 41, "/": 42, "\u251c": 43, "\u2500": 44, "1": 45, "\u2502": 46, "j": 47, "2": 48, "\u2514": 49, "C": 50, "X": 51, "[": 52, "]": 53, "#": 54, "L": 55, "!": 56, "I": 57, "{": 58, "}": 59, "D": 60, "A": 61, "0": 62, "K": 63, "q": 64, "6": 65, "R": 66, "z": 67, "O": 68, "W": 69, "E": 70, "M": 71, "U": 72, "P": 73, "G": 74, "B": 75, "5": 76, "8": 77, "+": 78, "3": 79, "H": 80, "*": 81, "Q": 82, "J": 83, "7": 84, "4": 85, "`": 86, "%": 87, "\\": 88, "?": 89, "Y": 90, ";": 91, "&": 92, "9": 93, "^": 94, "|": 95, "~": 96, "@": 97, "Z": 98, "$": 99, "\u00f6": 100, "in": 101, "_t": 102, "_s": 103, "on": 104, "re": 105, "at": 106, "_a": 107, "er": 108, "or": 109, "_i": 110, "el": 111, "ar": 112, "_d": 113, "he": 114, "al": 115, ")\n": 116, "_c": 117, "am": 118, "es": 119, "_=": 120, "_f": 121, ":\n": 122, "_n": 123, "en": 124, "_in": 125, "_o": 126, "se": 127, "ti": 128, "_p": 129, "_the": 130, "_re": 131, "le": 132, "st": 133, "_\"": 134, "_m": 135, "an": 136, "ed": 137, "ur": 138, "ex": 139, "_l": 140, "elf": 141, "_b": 142, ".\n": 143, "ro": 144, "et": 145, "_w": 146, "_is": 147, "pe": 148, "urn": 149, "ing": 150, "_to": 151, "ct": 152, "um": 153, "ce": 154, "as": 155, "ef": 156, "_if": 157, "it": 158, "ul": 159, "\"\"": 160, "ra": 161, "nd": 162, "turn": 163, "par": 164, "):\n": 165, "_v": 166, "_\"\"\"": 167, "elf.": 168, "ol": 169, "one": 170, "_of": 171, "_return": 172, "ame": 173, "alu": 174, "ot": 175, "_:": 176, "_def": 177, "un": 178, "_>": 179, "_\"\"\"\n": 180, "_#": 181, "_self.": 182, "None": 183, "ype": 184, "_(": 185, "tion": 186, "_st": 187, "_for": 188, "ata": 189, "_>>": 190, "_>>>": 191, "is": 192, "(s": 193, "od": 194, "ate": 195, "\n\n": 196, "_1": 197, "ut": 198, "_T": 199, "_j": 200, ".\n\n": 201, "up": 202, "ic": 203, "_'": 204, "_[": 205, "ke": 206, "ow": 207, "ult": 208, "_g": 209, "im": 210, ")\n\n": 211, "_`": 212, "th": 213, "_None": 214, "_not": 215, "si": 216, "_valu": 217, "_or": 218, "),": 219, "_u": 220, "em": 221, "_th": 222, "ll": 223, "ma": 224, "ent": 225, "unc": 226, "_S": 227, "_and": 228, "ge": 229, "ab": 230, "s.": 231, "',": 232, "_R": 233, "ve": 234, "_be": 235, "ad": 236, "_el": 237, "id": 238, "ist": 239, "ig": 240, "_2": 241, "onn": 242, "oc": 243, "om": 244, "ort": 245, "all": 246, "if": 247, "s,": 248, "_0": 249, "ter": 250, "_ex": 251, "_I": 252, "ch": 253, "param": 254, "_con": 255, "ect": 256, "bj": 257, "ap": 258, "pl": 259, "iz": 260, "_-": 261, "qu": 262, "ith": 263, "]\n": 264, "ati": 265, "_ind": 266, "_h": 267, "_as": 268, "park": 269, "(\"": 270, ".s": 271, "tr": 272, "_r": 273, "_:param": 274, "_sc": 275, ",\n": 276, ".c": 277, "_fi": 278, "_data": 279, "rom": 280, "_str": 281, "te": 282, "(self": 283, "olum": 284, "olumn": 285, "ext": 286, "ray": 287, "_par": 288, "ault": 289, "_.": 290, "_D": 291, "_ar": 292, "key": 293, "_e": 294, "ue": 295, "av": 296, "ver": 297, "_+": 298, "_num": 299, "ror": 300, "_C": 301, "_from": 302, "Par": 303, "me": 304, "ance": 305, "tit": 306, "_name": 307, "and": 308, "to": 309, ".0": 310, "_it": 311, "ta": 312, "dd": 313, "_ne": 314, "ass": 315, "_index": 316, "end": 317, "ize": 318, "_with": 319, "ation": 320, "_A": 321, "rame": 322, "op": 323, "_obj": 324, "_an": 325, "()": 326, "sed": 327, "_se": 328, "_res": 329, "_value": 330, "lo": 331, "_len": 332, "titonn": 333, "(self,": 334, "s\n": 335, "oin": 336, "Er": 337, "_func": 338, "_*": 339, "_else": 340, "li": 341, "ay": 342, "()\n": 343, "_values": 344, "_``": 345, "ise": 346, "Error": 347, "stance": 348, "odel": 349, "Frame": 350, "cl": 351, "ath": 352, "df": 353, "ava": 354, "ind": 355, "--": 356, "roup": 357, "type": 358, "('": 359, "ht": 360, "res": 361, "ck": 362, "ri": 363, "_df": 364, "_list": 365, "_op": 366, "ndex": 367, "_type": 368, "sion": 369, "mat": 370, "row": 371, "DD": 372, "arg": 373, "_set": 374, "_ra": 375, "alue": 376, "eri": 377, "rue": 378, "_result": 379, "ple": 380, "_key": 381, "_..": 382, "_isin": 383, "=None": 384, "\",": 385, "set": 386, "ight": 387, "port": 388, "_==": 389, "put": 390, "_ma": 391, "_3": 392, ".f": 393, "_default": 394, "---": 395, "_else:\n": 396, "))\n": 397, "_isinstance": 398, "([": 399, "_id": 400, "_we": 401, "_raise": 402, "ill": 403, "est": 404, "_this": 405, "_%": 406, "],": 407, "ec": 408, "art": 409, "Type": 410, "_sh": 411, "_cl": 412, "_new": 413, "``": 414, "_on": 415, "text": 416, "age": 417, "_string": 418, "_If": 419, "_P": 420, "che": 421, "ly": 422, "_x": 423, "_F": 424, "_column": 425, "ken": 426, "name": 427, "ataFrame": 428, "il": 429, "red": 430, ").": 431, "_lo": 432, "(d": 433, "_N": 434, "_pro": 435, "_all": 436, "pt": 437, "_le": 438, "ir": 439, "_are": 440, "yp": 441, "abel": 442, "able": 443, "eturn": 444, ":`": 445, "Con": 446, "alse": 447, "__": 448, "-----": 449, "ess": 450, "_im": 451, "_None:\n": 452, "_function": 453, "ace": 454, "_that": 455, "ict": 456, "_us": 457, "p.": 458, "_tim": 459, "_RDD": 460, "1,": 461, "_k": 462, "ou": 463, "_will": 464, "ql": 465, "------": 466, "vel": 467, "_The": 468, "_model": 469, "_X": 470, "))": 471, "_com": 472, "_get": 473, "_V": 474, "_E": 475, "_isinstance(": 476, "pec": 477, "ream": 478, "_array": 479, "_Return": 480, "_by": 481, "ample": 482, "ep": 483, "co": 484, ".d": 485, "_path": 486, "nt": 487, "ask": 488, "s(": 489, "reate": 490, "ames": 491, "time": 492, "_token": 493, "_tr": 494, "iv": 495, "class": 496, "_X|": 497, "_M": 498, ".g": 499, "])\n": 500, "_-------": 501, "py": 502, "_ver": 503, "ub": 504, "oul": 505, "Partitonn": 506, "ould": 507, "_at": 508, "s[": 509, "ave": 510, "ach": 511, "ector": 512, "_True": 513, "ile": 514, "_file": 515, "_dtype": 516, "_{": 517, "ust": 518, "s)": 519, "(l": 520, "00": 521, "spark": 522, "ine": 523, "_wh": 524, "_object": 525, "ord": 526, "_ax": 527, "_can": 528, "ther": 529, "ode": 530, "orm": 531, "str": 532, "andas": 533, "_param": 534, "ow(": 535, "_group": 536, "ber": 537, "_ac": 538, "class:`": 539, "_...": 540, "_met": 541, "valu": 542, "_|": 543, "ifi": 544, "_used": 545, "_java": 546, "ore": 547, "eter": 548, "Context": 549, "rain": 550, "eld": 551, "_len(": 552, "_spec": 553, "ans": 554, "ator": 555, "_sche": 556, "_other": 557, "gth": 558, "_Spark": 559, "rit": 560, "ure": 561, "ast": 562, "_sort": 563, "_en": 564, "t(": 565, "ary": 566, "_import": 567, "_y": 568, "_un": 569, "_:class:`": 570, "ock": 571, "_<": 572, "_np.": 573, "ger": 574, "lect": 575, "_max": 576, "_log": 577, "e,": 578, "ated": 579, "da": 580, "_whe": 581, "_label": 582, "0,": 583, "_W": 584, "_elif": 585, "_schema": 586, "thon": 587, "_end": 588, "_start": 589, "uct": 590, "ull": 591, "_L": 592, "array": 593, "_input": 594, "_po": 595, "obj": 596, "_option": 597, "Index": 598, "_py": 599, "_each": 600, "efault": 601, "_col": 602, "='": 603, "_Value": 604, "Param": 605, "_exce": 606, "_out": 607, "ape": 608, "._j": 609, "01": 610, "=None,": 611, "')": 612, "de": 613, "val": 614, "(self.": 615, "_ValueError": 616, "(\n": 617, "alize": 618, "arr": 619, "_5": 620, "es\n": 621, "St": 622, "_Th": 623, "fo": 624, "_names": 625, "_dict": 626, "tive": 627, "ange": 628, "_min": 629, "_has": 630, "_DataFrame": 631, "(f": 632, "_conver": 633, "_co": 634, "vm": 635, "_ch": 636, "_pre": 637, "col": 638, "warg": 639, "_al": 640, "_B": 641, "_row": 642, "_should": 643, "inn": 644, "64": 645, "ulti": 646, "ampl": 647, "opy": 648, "pu": 649, "atch": 650, "ase": 651, "_do": 652, "_date": 653, "pp": 654, "\")\n": 655, "int": 656, "indow": 657, "s=": 658, "_Ex": 659, "_he": 660, "oint": 661, "_spark": 662, "2,": 663, "_rdd": 664, "_rec": 665, "ell": 666, "_axis": 667, "app": 668, "s)\n": 669, "na": 670, "_self._j": 671, "orr": 672, ":\n\n": 673, "_level": 674, "values": 675, ".j": 676, "]\n\n": 677, "ormat": 678, "pr": 679, "heck": 680, "_G": 681, "_sp": 682, "_mask": 683, "ib": 684, "con": 685, "._": 686, ".sql": 687, "_partitonn": 688, "_loc": 689, "_use": 690, "bda": 691, "hod": 692, "ption": 693, "ypes": 694, "_This": 695, "ified": 696, "_J": 697, "rdd": 698, ")\n)\n": 699, "[0": 700, "s:": 701, "ates": 702, "_time": 703, "ambda": 704, "_length": 705, "err": 706, "_call": 707, "::": 708, "_indexer": 709, "loat": 710, "s):\n": 711, "ack": 712, "_number": 713, ".t": 714, "ython": 715, "quen": 716, "son": 717, "_U": 718, "_Type": 719, "ment": 720, "ction": 721, "ias": 722, "(p": 723, "form": 724, "place": 725, "fi": 726, "rent": 727, "In": 728, "_doc": 729, "By": 730, "DataFrame": 731, "_4": 732, "|\n": 733, "ion": 734, "_method": 735, "_**": 736, "_[R": 737, "(n": 738, "ft": 739, "der": 740, "y:\n": 741, "unt": 742, "uple": 743, "lice": 744, "iti": 745, "ich": 746, "default": 747, "_False": 748, "_int": 749, "map": 750, "spark.sql": 751, "oth": 752, "lock": 753, "_arg": 754, "\"\n": 755, "_None|": 756, "_format": 757, "attr": 758, "_inter": 759, "imit": 760, "_val": 761, "u'": 762, "ser": 763, "_specified": 764, "_one": 765, "ark": 766, "ents": 767, "_check": 768, "out": 769, "-0": 770, "_iter": 771, "_0.": 772, "rix": 773, "eries": 774, "Data": 775, "_elem": 776, "ick": 777, "-1": 778, "=None):\n": 779, "andom": 780, "_2,": 781, "_qu": 782, "_which": 783, "_except": 784, "_SparkContext": 785, "iven": 786, "s:\n": 787, "allel": 788, "min": 789, "ices": 790, "erialize": 791, ".0,": 792, "fer": 793, "_TypeError": 794, "start": 795, "tain": 796, "_must": 797, "chema": 798, "_seed": 799, "_copy": 800, "_so": 801, "_text": 802, "_convert": 803, "rite": 804, ".par": 805, "_posi": 806, "Func": 807, "_have": 808, "_Column": 809, "atrix": 810, "_Index": 811, "ory": 812, "ide": 813, "\")": 814, "tring": 815, "eat": 816, "sc": 817, ".w": 818, "_Param": 819, "_the\n": 820, "_None\n": 821, "=u'": 822, "_pa": 823, "(x": 824, "_weight": 825, "')\n": 826, "_(default": 827, "ache": 828, "Stream": 829, "_given": 830, "_try:\n": 831, "value": 832, "_item": 833, "201": 834, "(j": 835, "_[Row(": 836, "_bo": 837, "_2.": 838, "gn": 839, "True": 840, "ify": 841, "_conf": 842, "return": 843, "_O": 844, "s.\n": 845, ")\n\n\n": 846, ".col": 847, "._jvm": 848, "ener": 849, "Model": 850, "_em": 851, "d.": 852, "_pandas": 853, "_fre": 854, "upport": 855, "_into": 856, "_H": 857, "ob": 858, "False": 859, "_numPartitonn": 860, "_vector": 861, "_contain": 862, "_no": 863, "(m": 864, "_only": 865, "_active": 866, "erializer": 867, "elect": 868, "(t": 869, "les": 870, "ound": 871, "amp": 872, "`.\n\n": 873, "ip": 874, "ng": 875, "_up": 876, "_comp": 877, "ey": 878, "])": 879, "+\n": 880, "plit": 881, "_when": 882, "_%s": 883, "uce": 884, "append": 885, "ces": 886, "arn": 887, "_True\n": 888, "_version": 889, "_position": 890, "_map": 891, "_add": 892, "':": 893, "_sub": 894, "other": 895, "_----------": 896, "_class": 897, "Name": 898, "_In": 899, "_any": 900, "(sc": 901, "kwarg": 902, "_idx": 903, "_Parameter": 904, "_null": 905, "(data": 906, "_limit": 907, "tra": 908, "'s": 909, "_order": 910, "(c": 911, "_batch": 912, "read": 913, "s.\n\n": 914, "add": 915, "estamp": 916, "_Parameters\n": 917, "ree": 918, ".m": 919, "_create": 920, "Ar": 921, "rst": 922, "_window": 923, "_----------\n": 924, "low": 925, "func": 926, "po": 927, "_float": 928, "allelize": 929, "_make": 930, "ff": 931, "pro": 932, "per": 933, "_but": 934, "so": 935, "_\"\n": 936, "_self": 937, "_first": 938, "_:return": 939, ".join": 940, ".format": 941, "_tuple": 942, "get": 943, "item": 944, "),\n": 945, "act": 946, "RDD": 947, "reg": 948, "like": 949, "_ValueError(\"": 950, "_field": 951, "gg": 952, ".collect": 953, ".in": 954, ".parallelize": 955, "_cont": 956, "(obj": 957, "_**kwarg": 958, "path": 959, "gor": 960, "led": 961, ".select": 962, "ally": 963, "_{}": 964, "_using": 965, "_range": 966, "cess": 967, "_['": 968, "_1,": 969, ".get": 970, "ble": 971, "=False": 972, "_self.s": 973, "ax": 974, "hape": 975, "_\"\"\"\n\n": 976, "ression": 977, "urrent": 978, "teger": 979, "_SparkContext.": 980, ".create": 981, "_note": 982, "_sc.parallelize": 983, "_record": 984, "_me": 985, "atetime": 986, "assed": 987, "_non": 988, "t\n": 989, "_size": 990, "Non": 991, "e)\n": 992, "_sorted": 993, "df.": 994, "unction": 995, "ield": 996, "_state": 997, "g.": 998, "_set,": 999, "_-1": 1000, "umm": 1001, "ea": 1002, "ero": 1003, "_same": 1004, ")]\n": 1005, "=True": 1006, "_allow": 1007, "_(default:": 1008, "error": 1009, "_line": 1010, ".createDataFrame": 1011, "_[]\n": 1012, "_z": 1013, "_mem": 1014, "arning": 1015, "_need": 1016, "max": 1017, "-01": 1018, "_orig": 1019, "itial": 1020, "['": 1021, "_value,": 1022, "_uses": 1023, "(1": 1024, "\\\n": 1025, "_sing": 1026, "_block": 1027, "_sl": 1028, "que": 1029, "emp": 1030, "_tokens": 1031, "_than": 1032, "_dist": 1033, "inal": 1034, "=1": 1035, "fe": 1036, "Key": 1037, "tic": 1038, "File": 1039, "_passed": 1040, "_1\n": 1041, "(lambda": 1042, "_multi": 1043, "_gener": 1044, "_Returns\n": 1045, "_-------\n": 1046, "_feat": 1047, "(r": 1048, "ument": 1049, ".function": 1050, "_train": 1051, "ew": 1052, "_0:\n": 1053, "_active_spark": 1054, "_active_spark_c": 1055, "_Java": 1056, "data": 1057, "fix": 1058, "_ap": 1059, "amples": 1060, "_output": 1061, "_exp": 1062, "_wra": 1063, "_valid": 1064, "ense": 1065, "mage": 1066, "mo": 1067, "ead": 1068, "_SparkContext._active_spark_c": 1069, "not": 1070, ".co": 1071, "num": 1072, "uration": 1073, "_reg": 1074, "DataFrame`": 1075, "ery": 1076, "train": 1077, "\n\n\n": 1078, "index": 1079, "_1.0": 1080, "eight": 1081, "ases": 1082, "truct": 1083, "_inst": 1084, "_SparkContext._active_spark_cte": 1085, "_note::": 1086, "_example": 1087, "_For": 1088, "by": 1089, "_SparkContext._active_spark_cteex": 1090, "ong": 1091, "_then": 1092, "_cls.": 1093, "-+": 1094, "_:return:": 1095, "_!": 1096, "_!=": 1097, "ON": 1098, "ply": 1099, "point": 1100, "sg": 1101, "_pd.": 1102, "_single": 1103, "_('": 1104, "_sequen": 1105, "_config": 1106, "_off": 1107, "_pr": 1108, ".p": 1109, "_Python": 1110, "'\n": 1111, "000": 1112, "group": 1113, "_char": 1114, "ns": 1115, "_df.select": 1116, "ical": 1117, "_support": 1118, "_returns": 1119, "s[0": 1120, "_nd": 1121, "ole": 1122, "_+=": 1123, "rect": 1124, "f,": 1125, "ule": 1126, "rop": 1127, "sert": 1128, "_timestamp": 1129, "way": 1130, "_DStream": 1131, "_spark.createDataFrame": 1132, "ity": 1133, "ickle": 1134, "pty": 1135, "],\n": 1136, ".g.": 1137, "esc": 1138, "ee": 1139, "_li": 1140, "ique": 1141, "ategor": 1142, "valid": 1143, "atonn": 1144, "_load": 1145, "ted": 1146, "terr": 1147, "zone": 1148, "_Row(": 1149, "(self):\n": 1150, "_dataset": 1151, "ies": 1152, "(se": 1153, "arget": 1154, "_extra": 1155, "Vector": 1156, "parse": 1157, "_Num": 1158, "'t": 1159, "))\n\n": 1160, "_dec": 1161, "()\n\n": 1162, "_TypeError(\"": 1163, "_\\\n": 1164, "_udf": 1165, "imum": 1166, "Value": 1167, "_sample": 1168, "_ta": 1169, "ines": 1170, "_SparkContext._active_spark_cteext\n": 1171, "ansform": 1172, "sure": 1173, "ac": 1174, "(),": 1175, "[0]": 1176, "Array": 1177, ").\n": 1178, "Re": 1179, "_random": 1180, "_red": 1181, "odes": 1182, "_logger": 1183, "[1": 1184, "(v": 1185, "_assert": 1186, "tern": 1187, "erge": 1188, "_1.": 1189, "_stream": 1190, "_count": 1191, "ative": 1192, "_user": 1193, "-d": 1194, "file": 1195, "ard": 1196, "_over": 1197, "eric": 1198, "ined": 1199, "Alice": 1200, "_initial": 1201, "elta": 1202, "_offset": 1203, "ultiIndex": 1204, "ss": 1205, "clu": 1206, "_types": 1207, ".S": 1208, "())\n": 1209, "rec": 1210, "_timezone": 1211, "_columns": 1212, "_elements": 1213, "_3,": 1214, "_kwarg": 1215, "ag": 1216, "orage": 1217, "_dep": 1218, ".0\n": 1219, "Cl": 1220, "_exist": 1221, "Col": 1222, "olid": 1223, "_%s\"": 1224, "au": 1225, ".collect()\n": 1226, "\\n": 1227, "_cor": 1228, "ing\n": 1229, ")):\n": 1230, "iction": 1231, "_av": 1232, "_last": 1233, "ote": 1234, "Map": 1235, "_local": 1236, "`\n": 1237, "ssi": 1238, "_sc.parallelize([": 1239, "--+\n": 1240, "DF": 1241, "eriod": 1242, "_Con": 1243, ".r": 1244, "_parameter": 1245, "_attr": 1246, "erve": 1247, "_json": 1248, "_:class:`DataFrame`": 1249, "._jvm.function": 1250, "oliday": 1251, ".is": 1252, "_image": 1253, "_current": 1254, "_enc": 1255, "_pred": 1256, "_6": 1257, ".to": 1258, "']": 1259, "edd": 1260, "_instance": 1261, "mp": 1262, "SE": 1263, "_like": 1264, "_bool": 1265, "_+---": 1266, "_per": 1267, "\".format": 1268, "_left": 1269, "_bu": 1270, "_Returns": 1271, "_case": 1272, "_scal": 1273, "_Ar": 1274, "er(": 1275, "_freq": 1276, "anel": 1277, "ed\n": 1278, "t,": 1279, "ze": 1280, "ension": 1281, "3,": 1282, "_infer": 1283, "_pair": 1284, "_self._s": 1285, "_sy": 1286, "aN": 1287, "_@": 1288, "-+\n": 1289, "tx": 1290, "old": 1291, "_repr": 1292, "_shape": 1293, "ime": 1294, "AR": 1295, "bu": 1296, "Partitonns": 1297, "self.": 1298, "_seq": 1299, "wo": 1300, "alias": 1301, "_table": 1302, "._jvm.functions.": 1303, "_logger.in": 1304, "_logger.info": 1305, "_face": 1306, "_os.": 1307, "ers": 1308, "ception": 1309, "_mode": 1310, "`,": 1311, "_may": 1312, "len": 1313, "_datetime": 1314, "_0\n": 1315, "ence": 1316, "_mat": 1317, "_mod": 1318, "5,": 1319, "_iterator": 1320, "_>=": 1321, "ign": 1322, "raction": 1323, "input": 1324, "_target": 1325, "ved": 1326, "Matrix": 1327, "_memory": 1328, "ive": 1329, "_ab": 1330, "s,\n": 1331, "wise": 1332, "_ign": 1333, "ari": 1334, "sing": 1335, "-like": 1336, "=0": 1337, "ized": 1338, "_clo": 1339, "lib": 1340, "_repres": 1341, "g.ap": 1342, "arrk": 1343, "_x:": 1344, "_does": 1345, "_'201": 1346, "_optional": 1347, "_'b": 1348, "_rows": 1349, "trained": 1350, "_MultiIndex": 1351, "_save": 1352, "_bound": 1353, "any": 1354, "_right": 1355, "struct": 1356, "org.ap": 1357, "_dif": 1358, "amed": 1359, "_requ": 1360, "ures": 1361, "_two": 1362, "_indices": 1363, "_ids": 1364, "_wrapp": 1365, "_ctx": 1366, "ose": 1367, "_di": 1368, "(o": 1369, "load": 1370, "_non-": 1371, "_numpy": 1372, "(cl": 1373, "a',": 1374, "_/": 1375, "_sequence": 1376, "ession": 1377, "abeled": 1378, "abeledP": 1379, "(df": 1380, "_slice": 1381, "_dtype=": 1382, "_encod": 1383, "_returned": 1384, "\")\n\n": 1385, "_10": 1386, "_equ": 1387, "est:": 1388, "s.append": 1389, "_pyspark.sql": 1390, "ummary": 1391, "ibut": 1392, "_oper": 1393, "'),": 1394, "conf": 1395, "-\n": 1396, "urce": 1397, "gh": 1398, "_empty": 1399, "_pl": 1400, "ite": 1401, "_doct": 1402, "_doctest:": 1403, "QL": 1404, "\"\"\"\n": 1405, ".types": 1406, "_Whe": 1407, "_pass": 1408, "_exception": 1409, "er,": 1410, "(ell": 1411, ",\n\n": 1412, "asestring": 1413, "ayer": 1414, ".shape": 1415, "_read": 1416, "`.\n": 1417, "(sel": 1418, "Le": 1419, "_sets": 1420, ").alias": 1421, "_matrix": 1422, "ear": 1423, "_charact": 1424, "_logger.info(\"": 1425, "inng": 1426, "io": 1427, "og": 1428, "ail": 1429, "_100": 1430, "org.apache": 1431, "verter": 1432, "__make": 1433, "_bin": 1434, "_multiple": 1435, "_unique": 1436, "_mean": 1437, "ado": 1438, "_ter": 1439, "date": 1440, "ateway": 1441, "write": 1442, "_logit": 1443, "_holiday": 1444, "rou": 1445, "_sin": 1446, "pee": 1447, "_drop": 1448, "_numeric": 1449, "_getattr": 1450, "_pres": 1451, "_cache": 1452, "ets": 1453, "ByKey": 1454, ".map": 1455, ".cco": 1456, "_query": 1457, "_1|": 1458, "_emb": 1459, "_--------\n": 1460, "_..\n\n": 1461, "_how": 1462, "_int(": 1463, "ready": 1464, "back": 1465, "_is\n": 1466, ".n": 1467, "att": 1468, "sum": 1469, "_bet": 1470, "ed::": 1471, "ending": 1472, "ggreg": 1473, "_NaN": 1474, "result": 1475, "_categor": 1476, "Duration": 1477, "``,": 1478, "_su": 1479, "_labels": 1480, "_acc": 1481, "_prov": 1482, "_We": 1483, "_msg": 1484, "cept": 1485, "_requir": 1486, "-01-": 1487, "_a\n": 1488, "ry": 1489, "lic": 1490, "_False\n": 1491, "_error": 1492, "cond": 1493, "_long": 1494, "_basestring": 1495, "_LabeledP": 1496, "_spark.createDataFrame([": 1497, "jor": 1498, "_tf": 1499, "orch": 1500, "list": 1501, "_(\"": 1502, "(0,": 1503, "_point": 1504, "olean": 1505, "_hasattr": 1506, "_verify": 1507, "i]": 1508, "pute": 1509, "_and\n": 1510, "ix": 1511, "_containing": 1512, "ister": 1513, "Row": 1514, "_3.": 1515, "quet": 1516, "_Series": 1517, "_dir": 1518, "(len": 1519, "_already": 1520, "ty": 1521, "())": 1522, "_heap": 1523, "Java": 1524, "_prob": 1525, "IP": 1526, "_fol": 1527, "ased": 1528, "pyspark.sql": 1529, "_head": 1530, "_codes": 1531, "ointer": 1532, "_feature": 1533, "_instead": 1534, ".name": 1535, "_element": 1536, "ause": 1537, "_self._": 1538, "level": 1539, "1',": 1540, "_reduce": 1541, "ML": 1542, "_Number": 1543, "_period": 1544, "ql_ctx": 1545, "SK": 1546, "pandas": 1547, "orrup": 1548, "mask": 1549, "_encoding": 1550, "oad": 1551, "ang": 1552, "_where": 1553, "\":": 1554, "_cal": 1555, "a,": 1556, "string": 1557, "RE": 1558, "ome": 1559, "[:": 1560, "_argument": 1561, "(b": 1562, "count": 1563, "lect)\n\n\n": 1564, "adoop": 1565, "_+---+": 1566, "istic": 1567, "null": 1568, "'])\n": 1569, "assi": 1570, "_Struct": 1571, "_Exception": 1572, "ither": 1573, "_0,": 1574, "ts": 1575, "IN": 1576, "_lambda": 1577, "0:": 1578, "ARK": 1579, "_cre": 1580, "lee": 1581, "_checkpoint": 1582, "_warning": 1583, "pect": 1584, "_replace": 1585, "_**kwargs):\n": 1586, "_bias": 1587, "_Datetime": 1588, "(k": 1589, "_them": 1590, "_(e": 1591, "x,": 1592, "_items": 1593, "(dt": 1594, "tim": 1595, "dtype": 1596, "adata": 1597, "_cls._": 1598, "_while": 1599, "stem": 1600, "(rdd": 1601, "_original": 1602, "_fraction": 1603, ".group": 1604, "_self.c": 1605, "Column": 1606, "_jc": 1607, "quenc": 1608, "_files": 1609, "f.": 1610, "ain": 1611, "_8": 1612, "_obj.": 1613, "dt": 1614, "arrow": 1615, ".u": 1616, "_of\n": 1617, "():\n": 1618, "recated": 1619, "_See": 1620, "]))\n": 1621, "uto": 1622, "_St": 1623, "(values": 1624, "enti": 1625, "_string,": 1626, "day": 1627, "_1:\n": 1628, "(name": 1629, "size": 1630, "_you": 1631, "atche": 1632, "None,": 1633, "Ex": 1634, ".st": 1635, "(key": 1636, "til": 1637, "we": 1638, "_next": 1639, "fter": 1640, "cat": 1641, "_to_java": 1642, "(col": 1643, "(data,": 1644, "ocab": 1645, "qa": 1646, "_ensure": 1647, "_mis": 1648, "ations": 1649, "_represent": 1650, "ok": 1651, "':\n": 1652, "org.apache.s": 1653, "s)\n\n": 1654, "efined": 1655, "PARK": 1656, "_merge": 1657, "_split": 1658, "zero": 1659, "_interp": 1660, "_follow": 1661, "_app": 1662, "func:`": 1663, "_\"\"\"R": 1664, "')\n\n": 1665, "_more": 1666, "_name,": 1667, ".e": 1668, "_also": 1669, ":\n:\n": 1670, "_dt": 1671, "(cls,": 1672, "Sp": 1673, "_after": 1674, "Size": 1675, "cending": 1676, "_[1": 1677, "=u'Alice": 1678, "Session": 1679, "quency": 1680, "izer": 1681, "----": 1682, "Qu": 1683, "sv": 1684, "_was": 1685, "_contin": 1686, "_print": 1687, "_prediction": 1688, "p,": 1689, "_fill": 1690, "left": 1691, "._jvm.": 1692, "Tpee": 1693, "Py": 1694, "_wheterr": 1695, "_norm": 1696, ").\n\n": 1697, "_writ": 1698, "_provid": 1699, ".ccolect)\n\n\n": 1700, "exx": 1701, "_indic": 1702, "Class": 1703, "')]\n": 1704, "_stage": 1705, "_:func:`": 1706, "(sc,": 1707, "_Vector": 1708, "uster": 1709, "Time": 1710, "_self.sql_ctx": 1711, "_character": 1712, "Schema": 1713, "ndarray": 1714, "SEP": 1715, "_axes": 1716, "_its": 1717, "_source": 1718, "_struct": 1719, "_weights": 1720, "_path,": 1721, "ump": 1722, "_zip": 1723, "_process": 1724, "_integer": 1725, "(1,": 1726, ")\n)\n\n": 1727, "_series": 1728, "_metadata": 1729, "_{'": 1730, "_data,": 1731, "[\"": 1732, "19": 1733, ".re": 1734, "..": 1735, "_fil": 1736, "_step": 1737, "_i,": 1738, "Converter": 1739, "Se": 1740, "mean": 1741, "pon": 1742, "stream": 1743, "_+SK": 1744, "_+SKIP": 1745, "_gateway": 1746, "_os.path": 1747, "th,": 1748, "bin": 1749, "ED": 1750, "=\"": 1751, "_boolean": 1752, "org.apache.sarrk": 1753, "_verifi": 1754, "ength": 1755, "_(e.g.": 1756, "vi": 1757, "partitonn": 1758, "_yield": 1759, "orageLe": 1760, "_self.map": 1761, "fil": 1762, "_Py": 1763, "req": 1764, ".,": 1765, "token": 1766, "edelta": 1767, "_DatetimeIndex": 1768, "_dd": 1769, "_direct": 1770, "_{}\".format": 1771, "enn": 1772, "resh": 1773, "unk": 1774, "_Conver": 1775, "_supported": 1776, "_back": 1777, "column": 1778, "_evalu": 1779, "_attribut": 1780, "_keys": 1781, "4,": 1782, "_prefix": 1783, "(w": 1784, "_neg": 1785, "(self._j": 1786, "uplic": 1787, "dered": 1788, "To": 1789, "nce": 1790, "_versionadd": 1791, "--+": 1792, "_word": 1793, "sub": 1794, "sw": 1795, "amples\n": 1796, "s.ap": 1797, "_state_dict": 1798, "_layer": 1799, "_dtype='": 1800, "_there": 1801, "_K": 1802, "_either": 1803, "_sim": 1804, "_parse": 1805, "IG": 1806, "_Row": 1807, "_bec": 1808, "_tz": 1809, "__get": 1810, "ld": 1811, "=2": 1812, "lob": 1813, "iter": 1814, "(in": 1815, "_sock": 1816, "(['": 1817, "lel": 1818, "_des": 1819, "_aggreg": 1820, "timat": 1821, "_system": 1822, "(g": 1823, "_pyspark": 1824, "_att": 1825, "_+SKIP\n": 1826, "_'2018": 1827, "_code": 1828, "_training": 1829, "_representatonn": 1830, "_StructType": 1831, "),,": 1832, "_hand": 1833, "ocal": 1834, "ie": 1835, "sp": 1836, "b',": 1837, "sh": 1838, "_info": 1839, "take": 1840, "ampling": 1841, "ient": 1842, "',,": 1843, ")]\n\n": 1844, "_u'": 1845, "_vari": 1846, "ism": 1847, "_isinstance(s": 1848, "eff": 1849, "_expression": 1850, "uments": 1851, "_basestring):\n": 1852, "ild": 1853, "sor": 1854, "_Sparse": 1855, "_\"\"\"Return": 1856, "ties": 1857, "_Pandas": 1858, "SON": 1859, "_scalar": 1860, "'],": 1861, "(sc._jvm.functions.": 1862, "_noqa": 1863, "erver": 1864, "_Examples\n": 1865, "_kn": 1866, "option": 1867, "_open": 1868, "_<=": 1869, "(0": 1870, "mall": 1871, ")]": 1872, "//": 1873, "_int,": 1874, "(at": 1875, "23": 1876, "_arr": 1877, "_)\n": 1878, "_#\n": 1879, "_because": 1880, "_age": 1881, "ared": 1882, "titi": 1883, "sist": 1884, "ining": 1885, "Iter": 1886, "_ent": 1887, "_Al": 1888, "_versionadded::": 1889, "_categorical": 1890, "_join": 1891, "_``f": 1892, "_proj": 1893, "_Column(sc._jvm.functions.": 1894, "_context": 1895, "_seq_length": 1896, "own": 1897, ".append": 1898, "ilar": 1899, "_de": 1900, "c)\n": 1901, "imension": 1902, "imal": 1903, "_diffe": 1904, "_match": 1905, "ween": 1906, "ssible": 1907, "_provided": 1908, "_0.0": 1909, "_zero": 1910, "_temp": 1911, "_validate": 1912, "ffix": 1913, "_:class:`pyspark.sql": 1914, "``.": 1915, "ecord": 1916, "gment": 1917, "_noqa\n": 1918, "orrupt": 1919, "_arch": 1920, "_pretrained": 1921, "_ndim": 1922, "_dis": 1923, "_Create": 1924, "our": 1925, "_module": 1926, "_top": 1927, "'):\n": 1928, "np.": 1929, "(value": 1930, "a\",": 1931, "name,": 1932, "32": 1933, "_arrow": 1934, "_inn": 1935, "_some": 1936, "_bef": 1937, "_before": 1938, "(*": 1939, "_4,": 1940, "_ascending": 1941, "_None,": 1942, "log": 1943, "(_to": 1944, "MLlib": 1945, "_features": 1946, "_frequency": 1947, "timator": 1948, "_interval": 1949, "_cls": 1950, "_frame": 1951, "_examples": 1952, "SV": 1953, "_na": 1954, "s[0]": 1955, ".b": 1956, "are": 1957, "amedt": 1958, "Un": 1959, "amme": 1960, "ternal": 1961, "_wor": 1962, "_Arrow": 1963, "how": 1964, "OD": 1965, "_self._get": 1966, "_desc": 1967, "_1),": 1968, "_7": 1969, "ant": 1970, "heap": 1971, "_based": 1972, "_enum": 1973, "ored": 1974, "met": 1975, "MLlibFunc": 1976, "llib": 1977, "_init": 1978, "_mon": 1979, "datetime": 1980, "_contains": 1981, "_find": 1982, "reshold": 1983, "c)": 1984, "_inclu": 1985, "tp": 1986, "LE": 1987, "%s": 1988, "rip": 1989, "])\n\n": 1990, "_write": 1991, "_serializer": 1992, "_partitonns": 1993, "Python": 1994, "orageLevel": 1995, "_apply": 1996, "_warnings.": 1997, "war": 1998, "_samples": 1999, "d,": 2000, "_numPartitonns": 2001, "As": 2002, "=None,\n": 2003, "_file,": 2004, "_@param": 2005, "_enumer": 2006, "(df.": 2007, "_callMLlibFunc": 2008, "_values\n": 2009, "base": 2010, "_SQL": 2011, "_:class:`pyspark.sql.types": 2012, ").alias('": 2013, "year": 2014, "_dates": 2015, "_returnType": 2016, "_tok": 2017, "_sk": 2018, "_best": 2019, "right": 2020, "-8": 2021, "_ndarray": 2022, "_An": 2023, ".item": 2024, "__.": 2025, "().": 2026, "_could": 2027, "_to\n": 2028, "ding": 2029, "onon": 2030, "(i": 2031, "elet": 2032, "_ignore": 2033, "icode": 2034, "_operation": 2035, "_[1,": 2036, "(x,": 2037, "_deprecated": 2038, "reduce": 2039, "_take": 2040, "ater": 2041, "_run": 2042, ")))": 2043, "_second": 2044, "_appl": 2045, "_between": 2046, "_or\n": 2047, "_enumerate": 2048, "_value\n": 2049, "_transform": 2050, "be": 2051, "sc,": 2052, "_np": 2053, "_JSON": 2054, "_2|": 2055, "',',": 2056, "rence": 2057, "Record": 2058, "RO": 2059, "_span": 2060, "ndim": 2061, "ition": 2062, ".join(": 2063, "rt": 2064, "_distance": 2065, "_Convert": 2066, "top": 2067, "`.": 2068, "sql": 2069, "_Note": 2070, "int64": 2071, "_sql": 2072, "sive": 2073, "idd": 2074, "cre": 2075, ")],": 2076, "_numPartitonns=": 2077, "(other": 2078, "com": 2079, "_here": 2080, "_generate": 2081, "Or": 2082, "_Hadoop": 2083, "_compression": 2084, "ables": 2085, "']\n": 2086, "Tr": 2087, "Of": 2088, "__to_java": 2089, "Bob": 2090, "(start": 2091, "_2.0": 2092, "_\"\"\"Returns": 2093, "allow": 2094, "izatonn": 2095, "_ep": 2096, "ideDuration": 2097, "_Also": 2098, "_0.2": 2099, "_00:": 2100, "_invalid": 2101, "s.appe": 2102, "_termin": 2103, "_score": 2104, "_continue": 2105, "n't": 2106, "open": 2107, "TF": 2108, "_lib": 2109, "_since": 2110, "_equal": 2111, "String": 2112, "ial": 2113, ".a": 2114, "obj,": 2115, "__,": 2116, "_k,": 2117, "df,": 2118, "_proper": 2119, "lobal": 2120, ".ex": 2121, "_Group": 2122, "ER": 2123, "_hash": 2124, "_es": 2125, "ME": 2126, "ves": 2127, "With": 2128, "_subset": 2129, "_Random": 2130, "For": 2131, "_sampling": 2132, "_self.get": 2133, ".write": 2134, "attern": 2135, "i,": 2136, "_interpol": 2137, "of": 2138, "},": 2139, "_To": 2140, "_[\"": 2141, "Per": 2142, "oint(": 2143, "_vocab": 2144, "irst": 2145, "_self.sql_ctx)": 2146, ".values": 2147, "sort": 2148, "_Dense": 2149, "atio": 2150, "-defined": 2151, "_[SEP": 2152, "_panel": 2153, "_Add": 2154, "Ch": 2155, "_Load": 2156, "redict": 2157, "_resulting": 2158, "ating": 2159, "format": 2160, "race": 2161, ".data": 2162, "([1,": 2163, "_got": 2164, "Length": 2165, "_When": 2166, "_None)\n": 2167, "_specify": 2168, "_summary": 2169, "_compute": 2170, "keep": 2171, "Num": 2172, "_ev": 2173, "_C{": 2174, "Val": 2175, "lection": 2176, "c,": 2177, "_stat": 2178, "_appro": 2179, "_Column(j": 2180, "=u'Bob": 2181, "Me": 2182, ".mllib": 2183, "args,": 2184, "ular": 2185, "__java": 2186, "ival": 2187, "ivalent": 2188, "pos": 2189, "97": 2190, "_user-defined": 2191, "config": 2192, "_pointer": 2193, "_segment": 2194, "_list_like": 2195, "ication": 2196, "pa": 2197, "_location": 2198, "_sup": 2199, "s),": 2200, ".com": 2201, "_key,": 2202, "_String": 2203, "_work": 2204, "age=": 2205, "l.": 2206, "rer": 2207, "uff": 2208, "Com": 2209, "(pa": 2210, "lose": 2211, "_be\n": 2212, "ak": 2213, "sign": 2214, ".un": 2215, "_[('": 2216, "_(2,": 2217, "Partitonns(": 2218, "pected": 2219, "_9": 2220, "itt": 2221, "ever": 2222, "_buck": 2223, "AP": 2224, "mon": 2225, "_arguments": 2226, "word": 2227, "ank": 2228, "_callMLlibFunc(\"": 2229, "_document": 2230, "Info": 2231, "_->": 2232, "_SparseVector": 2233, "_register": 2234, "umn": 2235, "_ro": 2236, "java": 2237, "_bool,": 2238, "_resol": 2239, "_jav": 2240, "LS": 2241, "ftmax": 2242, "igh": 2243, "_print(\"": 2244, ".split": 2245, "on't": 2246, "ection": 2247, "_ht": 2248, "-s": 2249, "tegerType": 2250, "most": 2251, "ward": 2252, "_different": 2253, "_datetime64": 2254, "_beh": 2255, "2\n": 2256, "annot": 2257, "zip": 2258, "_It": 2259, "_called": 2260, "_possible": 2261, "(ex": 2262, "(x)": 2263, "_self.is": 2264, "_stop": 2265, "Replace": 2266, "int(": 2267, ")\nt": 2268, "_in\n": 2269, "ied": 2270, "10": 2271, "(st": 2272, "vm.": 2273, "_trans": 2274, "_outpu": 2275, "_distri": 2276, "_ali": 2277, "_ValueError('": 2278, "transform": 2279, "rees": 2280, ".\"\"\"\n": 2281, "-2": 2282, "replace": 2283, "_cluster": 2284, ".weight": 2285, "=[": 2286, "=u'Alice',": 2287, "anti": 2288, "rection": 2289, "label": 2290, "ift": 2291, "_ns": 2292, "ParamMap": 2293, "_construct": 2294, "_groupby": 2295, "_esc": 2296, "_axis=": 2297, "_ob": 2298, "_aut": 2299, "aces": 2300, "_pick": 2301, "_remo": 2302, ".con": 2303, "_height": 2304, "ann": 2305, "_\"b": 2306, "_e.g.": 2307, "s()": 2308, "object": 2309, "for": 2310, "_behav": 2311, "_True,": 2312, "SPARK": 2313, "bine": 2314, "lease": 2315, "_python": 2316, "_blocks": 2317, "educe": 2318, "_1)": 2319, "ctu": 2320, "rea": 2321, "_wrapped": 2322, "`.\n\n\n": 2323, "_\"\"\"S": 2324, "=j": 2325, "_wrapper": 2326, "ric": 2327, "_old": 2328, "_slideDuration": 2329, "').ccolect)\n\n\n": 2330, "_df.group": 2331, "pear": 2332, "_jav_c": 2333, "json": 2334, "indices": 2335, "_pd.Index": 2336, "_'2018-01-": 2337, "axis": 2338, "_und": 2339, "1:": 2340, "_small": 2341, "_IntegerType": 2342, "uc": 2343, "_recent": 2344, "_Data": 2345, "names": 2346, "_storage": 2347, "andard": 2348, "_cho": 2349, "=False):\n": 2350, "ev": 2351, "AL": 2352, "_Com": 2353, "s(self,": 2354, "{}": 2355, "ctx": 2356, "r)\n": 2357, ".from": 2358, "None):\n": 2359, "_tot": 2360, "(range": 2361, ".\")\n": 2362, "_sq": 2363, "ower": 2364, "etermin": 2365, "_fail": 2366, "rdd_des": 2367, "').": 2368, "_functions": 2369, "nan": 2370, "rel": 2371, "gr": 2372, "freq": 2373, "_jdf": 2374, "ving": 2375, "[ns": 2376, "best": 2377, "ignore": 2378, "_tokenizer": 2379, "tension": 2380, "_see": 2381, "rough": 2382, "dir": 2383, ".load": 2384, "_once": 2385, "]]": 2386, "raceback": 2387, "s))\n": 2388, "VM": 2389, "cal": 2390, "ested": 2391, ").s": 2392, "tes": 2393, "OR": 2394, "_descri": 2395, "float": 2396, "_total": 2397, "_5,": 2398, "5\n": 2399, "_duplic": 2400, "_assum": 2401, "2.": 2402, "oll": 2403, "_std": 2404, "Iteration": 2405, "plement": 2406, "dict": 2407, "va": 2408, "_isinstance(col": 2409, "_convert_to": 2410, "_LabeledPoint": 2411, "_LabeledPoint(": 2412, "_mo": 2413, "_+------": 2414, "[0]\n": 2415, "_sdf": 2416, "(result": 2417, "_sent": 2418, "idx": 2419, "Ratio": 2420, "_[Row": 2421, "match": 2422, "(np.": 2423, "NameOf": 2424, "NameOfC": 2425, "NameOfCorrupt": 2426, "NameOfCorruptRecord": 2427, "_``false": 2428, "_values.": 2429, "_model_name": 2430, "idden": 2431, "_Also\n": 2432, "gine": 2433, "ne": 2434, "_specified,": 2435, "_within": 2436, "),),": 2437, "_index,": 2438, "s://": 2439, "e)\n\n": 2440, "s():\n": 2441, "__create": 2442, "Type,": 2443, ")\ne)\n": 2444, "=True,": 2445, "_they": 2446, "has": 2447, "_Tim": 2448, ".ap": 2449, ".dt": 2450, "_Y": 2451, "}\n": 2452, "quared": 2453, "[i]": 2454, "_rever": 2455, "\"]": 2456, "_preser": 2457, "):": 2458, "_warnings.war": 2459, "_[0,": 2460, "erial": 2461, "(num": 2462, "info": 2463, "_depth": 2464, "s[i]": 2465, "_Key": 2466, "_func,": 2467, "[1,": 2468, "_generated": 2469, "_Column(jc)": 2470, "_wrap": 2471, "_cent": 2472, "(s)": 2473, "_[Row(name": 2474, "_dropna": 2475, "_existing": 2476, "_sc._jvm.functions.": 2477, "``:": 2478, "'|": 2479, "_df.groupby": 2480, "Format": 2481, "oton": 2482, "Block": 2483, "_np.ndarray": 2484, "_major": 2485, "_obj.co": 2486, "_torch": 2487, "edding": 2488, "CLS": 2489, "_answ": 2490, "_softmax": 2491, "_nans": 2492, "_classi": 2493, "_path:": 2494, "_through": 2495, "=k": 2496, "_list(": 2497, "_Par": 2498, "la": 2499, "_Traceback": 2500, "_(most": 2501, "_last):\n": 2502, "amedtuple": 2503, "Field": 2504, "atte": 2505, "_been": 2506, "tz": 2507, "_day": 2508, "_throw": 2509, "_perform": 2510, "(path": 2511, "_side": 2512, "CT": 2513, "abled": 2514, "ed.\n": 2515, "_Not": 2516, "_negative": 2517, "_try": 2518, "(ellf,": 2519, "artit": 2520, "yn": 2521, "_filter": 2522, "(temp": 2523, ".i": 2524, "_Window": 2525, "_rank": 2526, "_convert_to_vector": 2527, "Pro": 2528, ".set": 2529, ".find": 2530, ".start": 2531, "_self._sc": 2532, "_equivalent": 2533, "__to_java_column": 2534, "_'B": 2535, "pace": 2536, "prob": 2537, "'))\n": 2538, "_spark.createDataFrame([('": 2539, "00:": 2540, "BC": 2541, "VE": 2542, "UDF": 2543, "_being": 2544, "_``\\": 2545, "_self._jwrite": 2546, "_server": 2547, "_minor": 2548, "_state['": 2549, "nt64": 2550, "_is_list_like": 2551, "go": 2552, "_directory": 2553, "_pickle": 2554, "_object\n": 2555, "_'f": 2556, "_times": 2557, "arch": 2558, "Fi": 2559, "CE": 2560, "field": 2561, "(obj,": 2562, "_isinstance(obj,": 2563, "_None\n\n": 2564, "_verifier": 2565, "alll": 2566, "_False,": 2567, "ool": 2568, "_TOD": 2569, "_TODO": 2570, "_handle": 2571, "ous": 2572, "ior": 2573, "_Wheterr": 2574, "_global": 2575, ".close": 2576, "_values,": 2577, "1\n": 2578, "_both": 2579, "_fl": 2580, ").collect()\n": 2581, "_replacement": 2582, "_cannot": 2583, "Co": 2584, "ett": 2585, "_other.": 2586, ".read": 2587, "_entry": 2588, "[0],": 2589, "_value.": 2590, "(a": 2591, "_(list": 2592, "_configuration": 2593, "Serializer": 2594, "_(c": 2595, "rap": 2596, "_just": 2597, "_needs": 2598, "_cols": 2599, "other,": 2600, "ms": 2601, "_indicates": 2602, "rad": 2603, "_database": 2604, "schema": 2605, "Weight": 2606, "-+-+\n": 2607, "(col,": 2608, "_ja": 2609, "essage": 2610, "url": 2611, "_kind": 2612, "_separ": 2613, "_1.0|": 2614, "aping": 2615, "_lineS": 2616, "_lineSep": 2617, "_``false`.\n\n": 2618, "otonic": 2619, "_missing": 2620, "major": 2621, "datetime64": 2622, "mod": 2623, "_optional\n": 2624, "_archive": 2625, "_answer": 2626, "_max_seq_length": 2627, "_timedelta": 2628, "_list-like": 2629, "000-01": 2630, "_Panel": 2631, "_Train": 2632, "round": 2633, "_'w": 2634, "_threshold": 2635, "54": 2636, "ype,": 2637, "s\n\n": 2638, "ility": 2639, "_list):\n": 2640, "_Array": 2641, "elem": 2642, "_accept": 2643, "_JVM": 2644, "new": 2645, "_require": 2646, "_standard": 2647, "_behavior": 2648, "_upd": 2649, "Reg": 2650, "_Gener": 2651, "Line": 2652, "oid": 2653, "Warning": 2654, "amm": 2655, "_otherwise": 2656, "_1\n\n": 2657, "_&": 2658, "ia": 2659, "_3.0": 2660, "ini": 2661, "_[0": 2662, "ten": 2663, "rdd_deserializer": 2664, "_created": 2665, "atorr": 2666, "_pattern": 2667, "_closed": 2668, "(e": 2669, "_Tr": 2670, "_job": 2671, "rol": 2672, "_these": 2673, ".or": 2674, "_isinstance(other,": 2675, "_cond": 2676, "\",\n": 2677, "ization": 2678, "ution": 2679, "_distribu": 2680, "_distribution": 2681, "_update": 2682, "_self._jdf": 2683, "_data.": 2684, "_sqlContext": 2685, "({": 2686, "astype": 2687, "...": 2688, "_embed": 2689, ".copy": 2690, "(_to_jav_c": 2691, "ffset": 2692, "_UDF": 2693, "_infe": 2694, "_quot": 2695, "IVE": 2696, "_stride": 2697, "_As": 2698, "_dense": 2699, "_model_name_or": 2700, "fier": 2701, ".default": 2702, "s,,": 2703, "atched": 2704, "_tto": 2705, "arge": 2706, "tps://": 2707, "lower": 2708, "_name\n": 2709, "_namedtuple": 2710, "_inf": 2711, "_name=": 2712, "us": 2713, "_binary": 2714, "uring": 2715, "aving": 2716, "_Row(name": 2717, "_Run": 2718, "_evaluate": 2719, "mee": 2720, "alues": 2721, "Mo": 2722, "(index": 2723, "_avoid": 2724, "(2,": 2725, "inct": 2726, "Replacement": 2727, "4\n": 2728, "_keep": 2729, "icient": 2730, "_other):\n": 2731, "_records": 2732, "Reduce": 2733, "d',": 2734, "_fall": 2735, "self": 2736, "_aggregate": 2737, "_cur": 2738, "_means": 2739, ".save": 2740, "quence": 2741, "_batchSize": 2742, "_avg": 2743, "Group": 2744, "_task": 2745, "_RDD.\n": 2746, "_true": 2747, "_inv": 2748, "del": 2749, "_consi": 2750, "_estimator": 2751, "(h": 2752, "_*args,": 2753, "_attributes": 2754, "(ot": 2755, "_5|": 2756, "name',": 2757, "_df.": 2758, "=False,": 2759, ")|": 2760, "_sep": 2761, "ites": 2762, "itespace": 2763, "ipy": 2764, "_NumPy": 2765, "_Im": 2766, "_start_position": 2767, "_engine": 2768, "_grouper": 2769, "_meta": 2770, "_2000-01": 2771, "(name,": 2772, "[1]": 2773, "_found": 2774, "[i": 2775, "_results": 2776, "55": 2777, "IL": 2778, "\":\n": 2779, "__parse": 2780, "mit": 2781, "_e:\n": 2782, "_Check": 2783, "b\",": 2784, "_pyarrow": 2785, "_pdf": 2786, "_:py": 2787, "_:py:": 2788, "uffle": 2789, "_dump": 2790, "_self.values": 2791, "_port": 2792, "_assign": 2793, "_self.ctx": 2794, "_('b',": 2795, "(func": 2796, "_sum": 2797, "]).": 2798, "uar": 2799, "_want": 2800, "amma": 2801, "_another": 2802, "(1)\n": 2803, "Dep": 2804, "_it\n": 2805, "_actu": 2806, "_''": 2807, "t-": 2808, "(to": 2809, "Str": 2810, "ute": 2811, "Spark": 2812, "respon": 2813, "Window": 2814, "_child": 2815, "_parent": 2816, "_pyspark.mllib": 2817, "essonn": 2818, "All": 2819, "Function": 2820, "_**kwargs)\n": 2821, "_Stream": 2822, "_Streaming": 2823, "_dstream": 2824, "innd": 2825, "_DataFrame(j": 2826, "--+\n\n": 2827, "ST": 2828, ".column": 2829, "true": 2830, "_message": 2831, "_ever": 2832, "__heap": 2833, "_cop": 2834, "_paramMap": 2835, "Tpee`": 2836, "_exclu": 2837, "_parsing": 2838, "_CSV": 2839, "_allows": 2840, "_whitespace": 2841, "_Import": 2842, "register": 2843, "_slic": 2844, "ensor": 2845, "_pre-": 2846, "_end_position": 2847, "_under": 2848, "gorith": 2849, "_Use": 2850, "ott": 2851, "line": 2852, ".en": 2853, "_del": 2854, "ake": 2855, "_similar": 2856, "bl": 2857, "_look": 2858, "_\"c": 2859, "_objects": 2860, "_don't": 2861, "mark": 2862, "_type.": 2863, "._jvm.org.apache.sarrk": 2864, "_compati": 2865, "_mapp": 2866, "ision": 2867, "(obj)\n": 2868, "__make_type": 2869, "ed,": 2870, "n,": 2871, "12": 2872, "_conversion": 2873, "_without": 2874, "_during": 2875, "_pd": 2876, "=onn": 2877, "_addition": 2878, "erg": 2879, "_cle": 2880, "_reverse": 2881, "(iter": 2882, "50": 2883, "_-1:\n": 2884, "_unicode": 2885, "',\n": 2886, "_Set": 2887, "_comput": 2888, "ed.": 2889, "_2),": 2890, "uaran": 2891, "uarante": 2892, "1.": 2893, "_0.9": 2894, "lambda": 2895, "ait": 2896, "_collect": 2897, "_final": 2898, "buck": 2899, "umul": 2900, "_(list,": 2901, "_continue\n": 2902, "_form": 2903, "_(None": 2904, "allelism": 2905, "_abs(": 2906, "do": 2907, "rier": 2908, ").alias(\"": 2909, "_condition": 2910, "_usage": 2911, "--+\n--+": 2912, "_Bob": 2913, "over": 2914, "all(\"": 2915, "model": 2916, "_path):\n": 2917, "ressonn": 2918, "Sub": 2919, "_``spark.sql": 2920, "chema,": 2921, "ress": 2922, "_correct": 2923, "random": 2924, "_DataFrame(jdf,": 2925, "_following": 2926, "_+---+-----": 2927, "Pandas": 2928, "**": 2929, "_every": 2930, "_nan": 2931, "_concat": 2932, "_'C": 2933, "_self._df": 2934, "inesis": 2935, "_\".join": 2936, "_stub": 2937, "pickle": 2938, "_KeyError": 2939, "_pretrained_model_name_or": 2940, "_pretrained_model_name_or_at": 2941, "_result.": 2942, "_masked": 2943, "_GH": 2944, "_self.group": 2945, "_2000-01-01": 2946, "_periods": 2947, "_data.\n": 2948, "_many": 2949, "=0.": 2950, "ION": 2951, "_Exception(\"": 2952, "_function\n": 2953, ".D": 2954, "_bel": 2955, "_compar": 2956, "-b": 2957, "\"):\n": 2958, "_less": 2959, "_fast": 2960, "DA": 2961, "\".\n": 2962, "upported": 2963, "_(i": 2964, "_datatype": 2965, "8,": 2966, "_fields": 2967, "Type):\n": 2968, "_cast": 2969, "(new": 2970, "_f,": 2971, "_int64": 2972, "_is_datetime64": 2973, "_normal": 2974, "k,": 2975, "plic": 2976, "Dict": 2977, "Values": 2978, "python": 2979, "emory": 2980, "_2\n": 2981, "_chunk": 2982, "_inplace": 2983, "(sort": 2984, "ler": 2985, "kes": 2986, "_UTF": 2987, "f-8": 2988, "8\n": 2989, "(f,": 2990, "_x,": 2991, "_seed=None):\n": 2992, "_guarante": 2993, "DataFrame`.\n\n": 2994, "eg": 2995, "_1)\n": 2996, "_our": 2997, "_delta": 2998, "_union": 2999, "_even": 3000, "_self.mapPartitonns(": 3001, "ever,": 3002, "Op": 3003, "0.": 3004, "_jrdd": 3005, "ustom": 3006, "_list,": 3007, "_'p": 3008, "igger": 3009, "efficient": 3010, "arrier": 3011, "----+": 3012, "af": 3013, "_\"a": 3014, "ting": 3015, "=3": 3016, "ars": 3017, "_conn": 3018, "_closure": 3019, "_func._": 3020, "_ignored": 3021, "_suffix": 3022, "_windowDuration": 3023, "_ML": 3024, "_df2": 3025, "_defines": 3026, "80": 3027, "ues": 3028, "[ns]": 3029, "_NA": 3030, "_java_stage": 3031, "__java_obj.": 3032, "__java_obj.set": 3033, "_00:00:": 3034, "_csv": 3035, "_`pandas": 3036, "_lower": 3037, "_set,\n": 3038, "_quote": 3039, "_escape": 3040, "RA": 3041, "_ref": 3042, "_refer": 3043, "_diff": 3044, "_ImportEr": 3045, "_ImportError": 3046, "cel": 3047, "_preserve": 3048, "afe": 3049, "_streaming": 3050, "_writer": 3051, "_resolved": 3052, "_embedding": 3053, "_[CLS": 3054, "_input_mask": 3055, "utoff": 3056, "_logprob": 3057, "nt64In": 3058, "_obser": 3059, ".\n\n\n": 3060, "_Ch": 3061, "_algorith": 3062, "nn": 3063, "(model": 3064, "_wid": 3065, "_0)": 3066, "sample": 3067, "=1,": 3068, "_How": 3069, "_det": 3070, "uples": 3071, "image": 3072, "cul": 3073, "_DD": 3074, "_DDL": 3075, "Type(": 3076, "PT": 3077, "\n\n\n\n": 3078, ".strip": 3079, "(obj):\n": 3080, "_scale": 3081, "_dict):\n": 3082, "(row": 3083, "items": 3084, "_converter": 3085, "_it's": 3086, "oror": 3087, "ypes\n": 3088, "14": 3089, ".date": 3090, "sonn": 3091, "_TODO:": 3092, "Tim": 3093, "_for\n": 3094, "_intern": 3095, "ys": 3096, "_Get": 3097, "_proces": 3098, "_os.path.join": 3099, "_self.m": 3100, "[k": 3101, "_20": 3102, "UP": 3103, "CH": 3104, "56": 3105, "rag": 3106, "_preserves": 3107, ".map(lambda": 3108, "WithIndex": 3109, ".0\n\n": 3110, ";\n": 3111, "_iteration": 3112, "2)": 3113, "Partit": 3114, "_part": 3115, "_pairs": 3116, "_prod": 3117, "with": 3118, "erer": 3119, "oci": 3120, "_operator": 3121, "\"\n\n": 3122, "_implement": 3123, "_collection": 3124, "1.0,": 3125, ".sum": 3126, "_are\n": 3127, "_example,": 3128, ".h": 3129, "orary": 3130, "=True)\n": 3131, "ely": 3132, "ended": 3133, "Util": 3134, "App": 3135, "__(": 3136, "_[Row(age=": 3137, "_correspon": 3138, "(array": 3139, "_exec": 3140, "_isinstance(schema,": 3141, "_self._set": 3142, "_java_model": 3143, "Load": 3144, "_function.": 3145, "`\n\n": 3146, "_params": 3147, "_+---+--+\n\n": 3148, "(arr": 3149, "=u'Bob',": 3150, "height": 3151, "eterministic": 3152, "_numpy.": 3153, "range": 3154, "peat": 3155, "_extract": 3156, "uture": 3157, "pandas_udf": 3158, "_df.groupby('": 3159, "xt": 3160, "toc": 3161, "tocol": 3162, "_dtype=np.": 3163, "_DenseVector": 3164, "_Asser": 3165, "_Assertion": 3166, "_AssertionError": 3167, "asarray": 3168, "_model\n": 3169, "(msg": 3170, "_self.out": 3171, "_co.co": 3172, "_self.save": 3173, "('_": 3174, "_self._sh": 3175, "transformer": 3176, "tokens": 3177, "_len(input": 3178, "_hidden": 3179, "_'\n": 3180, "allow_copy": 3181, "_2.9": 3182, "_cython": 3183, "_holidays": 3184, "ese": 3185, "_larg": 3186, "oinng": 3187, "rary": 3188, "_Make": 3189, "_0),": 3190, "empty": 3191, "ailable": 3192, "_Option": 3193, "_points": 3194, "_tt": 3195, "tin": 3196, "_short": 3197, "_decimal": 3198, "ET": 3199, "_By": 3200, "_Sh": 3201, "Struct": 3202, "_onn": 3203, "atta": 3204, "_allowed": 3205, "_type(dt": 3206, "_Timestamp": 3207, "stt": 3208, "_converted": 3209, "_require_inn": 3210, "_require_innimum": 3211, "_versonn": 3212, "_nested": 3213, "local": 3214, "f1": 3215, "_comb": 3216, "fun": 3217, ".close()\n": 3218, "_pos": 3219, "ful": 3220, "\"),": 3221, "_pass\n": 3222, "_0x": 3223, "ross": 3224, "_defined": 3225, "_preservesPar": 3226, "_preservesPartiti": 3227, "_preservesPartitiining": 3228, "_withReplacement": 3229, "_probab": 3230, "_exact": 3231, "_fix": 3232, ".take": 3233, "_shuffle": 3234, "oun": 3235, "ice": 3236, "_partitonnFunc": 3237, "ian": 3238, "ali": 3239, "here": 3240, "2)\n": 3241, "_'c": 3242, "s[0]\n": 3243, "_1]": 3244, "_base": 3245, "_tempFile": 3246, "ec)\n)\n": 3247, "inner": 3248, "tract": 3249, "_place": 3250, "(rdd,": 3251, "_\"d": 3252, "Id": 3253, ".defaultPar": 3254, "rox": 3255, "Local": 3256, "_alias": 3257, "_keyword": 3258, "_sel": 3259, "ances": 3260, "_data:\n": 3261, "bName": 3262, "sparkSession": 3263, ".up": 3264, "_alway": 3265, "_center": 3266, "-3": 3267, "e,\n": 3268, "Streaming": 3269, ".for": 3270, "_long,": 3271, "see": 3272, "_+---\n\n": 3273, "=s": 3274, "how()\n": 3275, "_DataFrame(self._j": 3276, "_pd.DataFrame": 3277, "_'min": 3278, ".dot": 3279, "arter": 3280, "yy": 3281, "_special": 3282, "_`start": 3283, "IS": 3284, "_PandasUDF": 3285, "_PandasUDFType": 3286, "_self._df(sel": 3287, "_self._df(selre": 3288, "_self._df(selre_j": 3289, "formed": 3290, "_``column": 3291, "_(ex": 3292, "_DataFrame\n": 3293, "ifies": 3294, "_nn": 3295, "(self)": 3296, "Rows,": 3297, "att(": 3298, "_i.i": 3299, "_i.i.d": 3300, "_compat": 3301, "ais": 3302, "_pre-trained": 3303, "_tokens_b": 3304, "_lm": 3305, "sz": 3306, "_layer_str": 3307, "_make_invalid": 3308, "_make_invalid_op": 3309, "uffix": 3310, "_Cython": 3311, "_tree": 3312, "_underly": 3313, "\"))\n": 3314, "TE": 3315, "ottom": 3316, "_available": 3317, "es,": 3318, "2:": 3319, "List": 3320, "Type:\n": 3321, "_isinstance(data": 3322, "exp": 3323, "_verifier(": 3324, "(\"a\",": 3325, "ouble": 3326, "_ss": 3327, "__check": 3328, "a/": 3329, "_201": 3330, "_dtype:": 3331, "_parameters": 3332, "_type,": 3333, "(op": 3334, "type,": 3335, "version": 3336, "_cached": 3337, "_Runtime": 3338, "amame": 3339, "vir": 3340, "viron": 3341, "OC": 3342, "_iterator:\n": 3343, "_used_memory": 3344, "illed": 3345, "_merg": 3346, "lin": 3347, "-1]": 3348, "2',": 3349, "_from\n": 3350, "_versionch": 3351, "_versionchang": 3352, "(iterator": 3353, ".count": 3354, "_seed)": 3355, "Split": 3356, "_numPartitonns=None,": 3357, "hite": 3358, "_boundary": 3359, "(y": 3360, "pi": 3361, "_print(": 3362, "_ass": 3363, "_associ": 3364, "seq": 3365, ".add": 3366, "value,": 3367, "_interpolate": 3368, "Text": 3369, "odec": 3370, "Fil": 3371, "Temp": 3372, "'])": 3373, "_lines": 3374, "_partitonnBy": 3375, "_added": 3376, "_So": 3377, "(),\n": 3378, "_timeout": 3379, ".org": 3380, "this": 3381, "_:class:`Column": 3382, "_strings": 3383, "=5": 3384, "ores": 3385, "_term": 3386, "imilar": 3387, "_sc,": 3388, "_Max": 3389, "_Maximum": 3390, "ariance": 3391, "=4": 3392, "_grad": 3393, "Name,": 3394, "_schema,": 3395, "_SPARK": 3396, "_actual": 3397, "[1:": 3398, "_always": 3399, "_properties": 3400, "_raise\n": 3401, "quent": 3402, "_sequences": 3403, "_cell": 3404, "side": 3405, "cast": 3406, "_positive": 3407, "_[Row(name=u'Alice',": 3408, "ili": 3409, "_(p": 3410, "_AR": 3411, ".ml.": 3412, "_:class:`pyspark.sql.types.": 3413, "_formats": 3414, "eek": 3415, "_wee": 3416, "_week": 3417, "valType": 3418, "_@pandas_udf": 3419, "_ids,": 3420, "_mismatch": 3421, "_spark.read": 3422, "s``": 3423, "ential": 3424, "ira": 3425, "_dimension": 3426, "rames": 3427, "_Block": 3428, "_dtype=dt": 3429, "_'_": 3430, "_i.i.d.": 3431, "_Notes\n": 3432, "_-----": 3433, "_-----\n": 3434, ".bias": 3435, ".token": 3436, "_tokens.append": 3437, "_self._shallow_copy": 3438, "_levels": 3439, "_left_indexer": 3440, "_knn": 3441, "=F": 3442, "ors": 3443, "fication": 3444, "_underlying": 3445, "thh": 3446, "_algorithm": 3447, "tonn": 3448, "_test": 3449, ".predict": 3450, "raw": 3451, "ove": 3452, "_ag": 3453, "nly": 3454, "_np.array": 3455, "_\"s": 3456, "ima": 3457, "_s_sin": 3458, "_s_sining": 3459, "_,": 3460, "elt": 3461, "ORE": 3462, "_dataType": 3463, "_%d": 3464, "(k,": 3465, "flow": 3466, "})\n": 3467, "_type(dt)": 3468, "_arrow_type": 3469, "_such": 3470, ".tz": 3471, "_recur": 3472, "/t": 3473, "_spill": 3474, "Bytes": 3475, "BytesSp": 3476, "BytesSpilled": 3477, "_partiti": 3478, "_partitioinng": 3479, "_clean": 3480, "._s": 3481, "_bre": 3482, "_break": 3483, "head": 3484, "cret": 3485, "_sys.": 3486, "_defaults": 3487, "_versionchanged::": 3488, "_RDD.\n\n": 3489, "PartitonnsWithIndex": 3490, "_this\n": 3491, "_sc.parallelize([1,": 3492, "_warnings.warn": 3493, "map(lambda": 3494, "1]": 3495, "(it": 3496, "utf-8": 3497, "_reduc": 3498, "_maximum": 3499, "_a,": 3500, "_Compute": 3501, "_[2": 3502, "_would": 3503, "_tuple)):\n": 3504, "_2:\n": 3505, "_needed": 3506, "Sc": 3507, "Job": 3508, "_inferred": 3509, "_(s": 3510, "_result\n": 3511, "_other,": 3512, "_returning": 3513, "_trigger": 3514, "ling": 3515, "perim": 3516, "periment": 3517, "perimental": 3518, "Po": 3519, "cols):\n": 3520, "isin": 3521, "olol": 3522, "]\n]\n": 3523, "_kwargs": 3524, "_SparkSession": 3525, "onion": 3526, "_isinstance(value,": 3527, "Mode": 3528, "_Vectors.": 3529, "_vectors": 3530, "_0.0\n": 3531, "En": 3532, "(key,": 3533, "_Note:": 3534, "_initializatonn": 3535, "_initialModel": 3536, "Weights": 3537, "Ter": 3538, "_optim": 3539, "_numPartitonns:": 3540, "_applies": 3541, "Conf": 3542, "+\n\n": 3543, "_:class:`pyspark.sql.types.S": 3544, "road": 3545, "roadcast": 3546, "_str,": 3547, "(arg": 3548, "_col:": 3549, "0|": 3550, "_necess": 3551, "_necessary": 3552, "))]\n": 3553, "ilities": 3554, "posed": 3555, "'.": 3556, "_pyspark.sql.types": 3557, "LECT": 3558, ".size": 3559, "__s": 3560, "_direction": 3561, "_callable": 3562, "=e": 3563, "yyy": 3564, "ules": 3565, "och": 3566, "_parsing.": 3567, "parquet": 3568, "_inference": 3569, "_dateFormat": 3570, "_timestampFormat": 3571, "_samplingRatio": 3572, "_locale": 3573, "alformed": 3574, "ingW": 3575, "ingWhite": 3576, "ingWhiteSp": 3577, "ingWhiteSpace": 3578, "ipp": 3579, "_url": 3580, "Ac": 3581, "_jira": 3582, "ries": 3583, "[j": 3584, "_np.asarray": 3585, "s['": 3586, "_gw": 3587, "Query": 3588, "ivot": 3589, "(shape": 3590, "_names=": 3591, "datetime64[ns]": 3592, "_PyT": 3593, "_PyTorch": 3594, "_pretrained_model_name_or_atth": 3595, "unique": 3596, "_segment_id": 3597, "_self.config": 3598, "_group['": 3599, "nt64Inexx": 3600, "ategorical": 3601, "(['201": 3602, "_make_invalid_op('_": 3603, "_known": 3604, "r,": 3605, "_faces": 3606, "_pickled": 3607, "_(if": 3608, "_show": 3609, "_below": 3610, ".text": 3611, "med": 3612, "_raw": 3613, "rid": 3614, "Invalid": 3615, "invalid": 3616, "_their": 3617, "_Map": 3618, "bility": 3619, "_Dec": 3620, "_TypeError:\n": 3621, ".key": 3622, "_nullable": 3623, "_not\n": 3624, "(schema": 3625, "Th": 3626, "sam": 3627, "_pandas.": 3628, "mb": 3629, "_ad": 3630, "_1:": 3631, ")])\n": 3632, "_True\n\n": 3633, "An": 3634, "Cannot": 3635, "Regression": 3636, "_:py:class:`": 3637, "set,": 3638, "_lr": 3639, "reres": 3640, "_attribute": 3641, "_data\n": 3642, "_go": 3643, "_external": 3644, "(ellf.": 3645, "_100,": 3646, "3\n": 3647, "_socket": 3648, "_(3,": 3649, "_isinstance(x,": 3650, "_[('a',": 3651, "_2)\n": 3652, "elel": 3653, "_:class:`DataFrame`.\n\n": 3654, "_sc.parallelize(range": 3655, "_RDDs": 3656, "Bound": 3657, "_normalize": 3658, "er\n": 3659, "_will\n": 3660, "_v:": 3661, "_(1,": 3662, "_kv": 3663, "_comm": 3664, "(com": 3665, "_result,": 3666, "_bucket": 3667, "_buckets": 3668, "100": 3669, "_inc": 3670, "_diction": 3671, "6,": 3672, "(3,": 3673, "(str": 3674, "_numPartitonns,": 3675, "\"))": 3676, "_variable": 3677, ".sort": 3678, "(values,": 3679, "_rel": 3680, "_(in": 3681, "expected": 3682, "_value):\n": 3683, "--+\n--+--+\n": 3684, "_RDD):\n": 3685, "eature": 3686, "oring": 3687, "_leaf": 3688, "_required": 3689, "0.0,": 3690, "Trees": 3691, ".exec": 3692, "_description": 3693, "view": 3694, ".json": 3695, "_self._se": 3696, "doc": 3697, "_Name": 3698, "_dim": 3699, ".mk": 3700, "_(b": 3701, "_beta": 3702, "_content": 3703, "_trunc": 3704, "Alice|\n": 3705, "_Bob|\n": 3706, "=True):\n": 3707, "_+----+": 3708, "_{0": 3709, "03": 3710, "A',": 3711, "Error,": 3712, "relation": 3713, "94": 3714, "Inf": 3715, "NT": 3716, "eatures": 3717, "_impl": 3718, "_instance\n": 3719, "es.": 3720, "last": 3721, "Type`": 3722, "_spark.createDataFrame([(": 3723, "yyyy": 3724, "_start,": 3725, "_\"value": 3726, "_options": 3727, "quot": 3728, "quoted": 3729, "step": 3730, "Dec": 3731, "ROUP": 3732, "ED_M": 3733, "_self._df(selre_jrea": 3734, "_``true": 3735, "p)\n": 3736, "=co": 3737, "nor": 3738, "_Kinesis": 3739, "_xrange": 3740, "iece": 3741, "_scipy": 3742, ".find('": 3743, "Cols,": 3744, "RET": 3745, "_terminated": 3746, ".shape\n": 3747, "umulator": 3748, ".udf.": 3749, ".udf.register": 3750, "_coer": 3751, "eleton": 3752, "qual": 3753, "_Tensor": 3754, "_TensorF": 3755, "_TensorFlow": 3756, "_[SEP]": 3757, "kens": 3758, "_lab": 3759, "_'2018-01-',',": 3760, "(ax": 3761, "_freq='": 3762, "_range(start": 3763, "196": 3764, "_verb": 3765, "=Fal": 3766, ".dump": 3767, "code": 3768, "_sure": 3769, "s[0],": 3770, "_again": 3771, "_et": 3772, "_https://": 3773, "_(i.e": 3774, "(a,": 3775, "ue,": 3776, "IGN": 3777, "AIL": 3778, "_sc._jvm.org.apache.sarrk": 3779, "_\"_": 3780, "s]\n": 3781, "__\n": 3782, "__make_type_verifier(": 3783, "No": 3784, "_%r": 3785, "_obj,": 3786, "alal": 3787, ".Series": 3788, ".util": 3789, "_i_": 3790, "inter": 3791, "_internal": 3792, "_>>>\n": 3793, "Series": 3794, "(dat": 3795, "name':": 3796, ".as": 3797, "du": 3798, "_class__.": 3799, "_class__._": 3800, "(java": 3801, "Moell": 3802, "_self.p": 3803, "_put": 3804, "(u": 3805, "_fit": 3806, "_stack": 3807, "_real": 3808, "(x):\n": 3809, "_3),": 3810, "_Dep": 3811, "_seed:": 3812, "1)": 3813, "(all": 3814, "_q": 3815, "_serial": 3816, "(ellf": 3817, "riali": 3818, "process": 3819, "ddd": 3820, "s.p": 3821, "_2],": 3822, "_ordered": 3823, "_previ": 3824, "_previous": 3825, "_Other": 3826, "})": 3827, "PI": 3828, "itit": 3829, ".saveAs": 3830, "ully": 3831, "_classname": 3832, "Temporary": 3833, "elete": 3834, "_(\"b\",": 3835, "gee": 3836, "):\n\n": 3837, "_substr": 3838, "_:class:`Column`": 3839, ".functions": 3840, "corr": 3841, "Fea": 3842, "non": 3843, "_imp": 3844, "_maxB": 3845, "_maxBin": 3846, "Classes": 3847, "_node": 3848, ".0]": 3849, "AN": 3850, ">\n": 3851, "_sparse": 3852, "_model.": 3853, "_self._jconf": 3854, "Table": 3855, "_header": 3856, "_variables": 3857, "_string\n": 3858, "init": 3859, "_oc": 3860, "actor": 3861, "args": 3862, "swith": 3863, "strea": 3864, "ndd": 3865, "state": 3866, "first": 3867, "_:class:`pyspark.sql.types.Struct": 3868, "_At": 3869, "_Ev": 3870, "_DataFrame.\n\n": 3871, "\").collect()\n": 3872, "_height=": 3873, ".c.c": 3874, "(othe": 3875, "4.": 3876, "_`p": 3877, "70": 3878, "_strings,": 3879, "_spark.sql": 3880, "_\"t": 3881, "_[b": 3882, "dev": 3883, "argin": 3884, "Ma": 3885, "__heapreplace": 3886, "_epm": 3887, "_cum": 3888, "yyyy-": 3889, "quarter": 3890, "_separator": 3891, "_arrays": 3892, "}'": 3893, "_:met": 3894, "_:meth": 3895, "_:meth:`": 3896, "_self._df(selre_jreaerr": 3897, "_cover": 3898, "_flag": 3899, "char": 3900, "_exists.\n": 3901, "Im": 3902, ".squared": 3903, "_array-like": 3904, "\"]\n": 3905, "_protocol": 3906, "_ed": 3907, "orig": 3908, "ning": 3909, "boun": 3910, "bounedd": 3911, "s.n": 3912, ".dtype": 3913, "str(x)": 3914, "_cp": 3915, "_fill_value": 3916, "_ffile": 3917, "(pointer": 3918, "RETRA": 3919, "RETRAIN": 3920, "_config_file": 3921, "_ids:": 3922, "_input_ids": 3923, "_indexes": 3924, "_::": 3925, "_maybe": 3926, "_dtype='int64": 3927, "_ngroup": 3928, "_dtype(dt": 3929, "_is_scalar": 3930, "tensionArray": 3931, "_isinn": 3932, "_cls)\n": 3933, "_axis,": 3934, "_deri": 3935, "_deriv": 3936, "_periods=": 3937, "_(196": 3938, "_verbose": 3939, "=False)\n": 3940, "_classifier": 3941, "atic": 3942, "(os": 3943, "_too": 3944, "_predict": 3945, "_EX": 3946, "_'r": 3947, "_range(len": 3948, "play": 3949, "_array\n": 3950, "_to_up": 3951, "_tuples": 3952, "atches": 3953, "mag": 3954, "_include": 3955, "_processing": 3956, "_land": 3957, "_landmark": 3958, "_[[": 3959, ".com/": 3960, "]]\n": 3961, "-dimension": 3962, "_calcul": 3963, "-format": 3964, "sitive": 3965, "IGNORE": 3966, "_backward": 3967, "_compatibility": 3968, "_True)\n": 3969, "Type(),": 3970, "()\n\n\n": 3971, "_obj._": 3972, "n)\n": 3973, "_ValueError(\n": 3974, "_pa.": 3975, ".schema": 3976, "_types.is": 3977, "_require_innimum_pandas": 3978, "_require_innimum_pandas_versonn": 3979, "-04": 3980, ".dat": 3981, "_recursive": 3982, "Train": 3983, "_RuntimeError": 3984, "_class__._amame": 3985, "s.path": 3986, "agg": 3987, "biner": 3988, "reeam": 3989, "_Sort": 3990, "_sign": 3991, "_secret": 3992, "_main": 3993, "_Exception:\n": 3994, "_buil": 3995, "24": 3996, "(r'": 3997, "_persist": 3998, "\"])\n": 3999, "_(x,": 4000, "(split": 4001, "reduceByKey": 4002, "(10": 4003, "weight": 4004, "_rand": 4005, "'re": 4006, "_self._jrdd_deserializer": 4007, "_interse": 4008, ".map(": 4009, "_self._default": 4010, "_value)": 4011, "_key-": 4012, "_bins": 4013, "oreach": 4014, "d)\n": 4015, "_Stop": 4016, ".tree": 4017, "uted": 4018, "ather": 4019, "_aggregation": 4020, "_minimum": 4021, "_2.0\n": 4022, "_duplicates": 4023, "_least": 4024, "].": 4025, "s.pop": 4026, "_Otherwise": 4027, "_taken": 4028, "lele": 4029, "Int": 4030, "_written": 4031, "),()": 4032, "_Default": 4033, "_{}\n": 4034, "(out": 4035, "_(e.g.,": 4036, "_control": 4037, "\".": 4038, "ash": 4039, "c.": 4040, "limit": 4041, "}\n\n": 4042, "pick": 4043, "_Experimental": 4044, "_jd": 4045, ".mean": 4046, ".org/": 4047, "her": 4048, "_Please": 4049, "s.to": 4050, "OrC": 4051, "OrCreate": 4052, "HE": 4053, "_pyspark.sql.functions": 4054, "_directly": 4055, "_self.call(\"": 4056, "_tre": 4057, "_categoricalFea": 4058, "_categoricalFeareres": 4059, "_categoricalFeareresInfo": 4060, "_maxDep": 4061, "_nodes": 4062, "_pyspark.mllib.": 4063, "_model.predict": 4064, "_requires": 4065, "ured": 4066, "_session": 4067, "_dbName": 4068, "_auth": 4069, "ele": 4070, "Task": 4071, "86": 4072, "_mix": 4073, "attonn": 4074, "_decay": 4075, "_isinstance(data,": 4076, "_predictions": 4077, "_topic": 4078, "terval": 4079, "_args": 4080, "_var": 4081, "eam": 4082, "sel": 4083, "_windowDuration,": 4084, "indow(": 4085, "_what": 4086, "(label": 4087, "ibute": 4088, "``\n": 4089, "_Evol": 4090, "_Evolving": 4091, "-+\n--+": 4092, "_select": 4093, "_ded": 4094, "_null|": 4095, "_all_of": 4096, "isinstance": 4097, "_rep": 4098, "aries": 4099, "_most": 4100, "_instal": 4101, "_columns=": 4102, "_pret": 4103, "_pretty": 4104, "_regular": 4105, "ish": 4106, "_-1\n": 4107, "inel": 4108, "dense": 4109, "_DenseMatrix": 4110, "_evaluator": 4111, "_py_stage": 4112, "_dict()\n": 4113, ".copy()\n": 4114, "(date": 4115, ".Date": 4116, "_month": 4117, "3-1": 4118, "_[Row(s": 4119, "_characters": 4120, "ta,": 4121, "deredDict": 4122, "_'a": 4123, "Lead": 4124, "=onne,": 4125, "Esc": 4126, "_corrup": 4127, "_corrupted": 4128, "_parquet": 4129, "[SPARK": 4130, "ndices": 4131, "_Indexed": 4132, "_pass\n\n": 4133, "_2.3": 4134, "_profil": 4135, "Error:\n": 4136, "=self.": 4137, "_Input": 4138, "_compri": 4139, "_comprised": 4140, "_self._js": 4141, "_hasattr(m": 4142, "(pickle": 4143, "_'g": 4144, "_setup": 4145, "_getattr(pointer": 4146, "_getattr(pointer,": 4147, "_new_key": 4148, "_\".join([": 4149, "inndex": 4150, "_logprob_i": 4151, "_constructor": 4152, "_ensure_index": 4153, "_Int64Inexx": 4154, "_**kwargs)": 4155, "_dtype='datetime64[ns]": 4156, "_Categorical": 4157, "_'right": 4158, "_selection": 4159, "_derivati": 4160, "w_limit": 4161, "_reco": 4162, "_(or": 4163, ".sq": 4164, "(X": 4165, "_matche": 4166, "_remove": 4167, "_:return:\n": 4168, "_draw": 4169, "_right,": 4170, "_bottom": 4171, "((": 4172, "28": 4173, "17": 4174, "-dimensional": 4175, "_)": 4176, "Ty": 4177, "o)\n": 4178, "CEPT": 4179, "Exception": 4180, "_js": 4181, "_mapping": 4182, "_1)]\n": 4183, ".field": 4184, "element": 4185, "_isinstance(dataType,": 4186, "_False\n\n": 4187, "_Date": 4188, "TC": 4189, "_spark_type": 4190, "ca": 4191, "sammp": 4192, "_localize": 4193, "_aw": 4194, "_is_datetime64tz": 4195, "frame": 4196, "plicit": 4197, ".time": 4198, "loc": 4199, ".apply": 4200, "_additional": 4201, "ass,": 4202, "_age=1": 4203, "_'age": 4204, "_%\n": 4205, "s.\"": 4206, "(sub": 4207, "_get_used_memory": 4208, "Combiner": 4209, "isk": 4210, "_\"w": 4211, "(ite": 4212, "_key=k": 4213, ".fl": 4214, "able_hash": 4215, "_1000": 4216, ".sub": 4217, "_storageLevel": 4218, "_applying": 4219, "(func,": 4220, "Pa": 4221, "_distinct": 4222, "plac": 4223, "_exactly": 4224, "_3],": 4225, "_[self.": 4226, "Sample": 4227, "True,": 4228, "_gre": 4229, "_large": 4230, "_~": 4231, "_having": 4232, "_sqr": 4233, "._jr": 4234, "NumPartitonns": 4235, "_accord": 4236, "_[(1,": 4237, "._onn": 4238, "\",,": 4239, "wh": 4240, "_product": 4241, "De": 4242, "_(f": 4243, "_pi": 4244, "%s'": 4245, "_zeroValue": 4246, "ummy": 4247, "_however,": 4248, "_Scal": 4249, "_rather": 4250, "unter": 4251, "where": 4252, "_used.\n\n": 4253, "bucket": 4254, "_range(": 4255, "s[i": 4256, "_key-value": 4257, "_API": 4258, "ert": 4259, "_fully": 4260, "Pickle": 4261, "_Se": 4262, "\\n\\": 4263, "3.": 4264, "_Each": 4265, "_--": 4266, "_grouping": 4267, "ana": 4268, "_rece": 4269, "_storage_level": 4270, "timeout": 4271, "_relative": 4272, "_approx": 4273, "_la": 4274, "__to": 4275, "cols": 4276, "_name)": 4277, "._jc": 4278, "_*cols):\n": 4279, "_name=u'Alice": 4280, "\").": 4281, "order": 4282, "__convert_to_vector": 4283, "_later": 4284, "Mean": 4285, "del)": 4286, "_1.0\n": 4287, "_storing": 4288, "_(n": 4289, "regressonn": 4290, "([1": 4291, "teg": 4292, "oo": 4293, "(value)\n": 4294, "loading": 4295, "(df,": 4296, "itialize": 4297, "copy": 4298, "_rdd,": 4299, "_maxIteration": 4300, "_warnings.warn(\"": 4301, "Sta": 4302, "_self._validate": 4303, "_isinstance(path": 4304, "arrg": 4305, "_ssc": 4306, "ern": 4307, "_`end": 4308, "_seen": 4309, "_slid": 4310, "_sliding": 4311, "_boolean,": 4312, "1\",": 4313, "_name|\n": 4314, "ml": 4315, "_assume": 4316, ".range": 4317, "_Spec": 4318, "ennd": 4319, "75": 4320, "_specif": 4321, "expr": 4322, ".drop": 4323, "_:func:`DataFrame": 4324, "_'all": 4325, "_string.\n": 4326, ".replace": 4327, "antile": 4328, "_optimizatonn": 4329, "_float(": 4330, "_cov": 4331, "empt": 4332, ".execution": 4333, ".arrow": 4334, "Arrow": 4335, "strip": 4336, "_margin": 4337, ".pop": 4338, "_thread": 4339, "_Ac": 4340, "Valid": 4341, "_reset": 4342, "_copies": 4343, "ded": 4344, "_function:": 4345, "(_to_jav_ccolumn": 4346, "_df.select(": 4347, "ermat": 4348, "ermatt": 4349, "_`start`": 4350, "_00:00:00": 4351, "_index.": 4352, "lev": 4353, "trans": 4354, "_dat": 4355, "_INT": 4356, "Names": 4357, "SELECT": 4358, "_ABC": 4359, "pand": 4360, "bool": 4361, "_opt": 4362, "_multiLine": 4363, ".\n.": 4364, "\\r": 4365, "_UR": 4366, "`:": 4367, "sue": 4368, "(text": 4369, "_minPartitonns": 4370, "_falls": 4371, "PerBlock": 4372, "_BlockMatrix": 4373, "reshape": 4374, "ersion": 4375, "_plat": 4376, "_platform": 4377, "89": 4378, "_filen": 4379, "_filename": 4380, "_reader": 4381, "Termin": 4382, "odde": 4383, "_skeleton": 4384, "_write(pickle": 4385, "_write(pickle.": 4386, ".update": 4387, "(model,": 4388, "_l[0]": 4389, "_ARCH": 4390, "_ARCHIVE": 4391, "_archiv": 4392, "esul": 4393, "_[SEP]\n": 4394, "_doc_span": 4395, "_nbest": 4396, "_edge": 4397, "[:,": 4398, ".foratt(": 4399, "_t2": 4400, "_self.out_layer": 4401, "_rule": 4402, "(level": 4403, "_np.nan": 4404, "_dtype='datetime64[ns]',": 4405, "arange": 4406, "_'left": 4407, "__make_ar": 4408, "__make_arith": 4409, "__make_arithme": 4410, "__make_arithmetic": 4411, "__make_arithmetic_op": 4412, "_observed": 4413, "_axis=ax": 4414, "_nv": 4415, "_end_date": 4416, "k\n": 4417, "_autom": 4418, "_automatic": 4419, "_[]\n\n": 4420, "_dri": 4421, "_img": 4422, "Image": 4423, "_face_location": 4424, "LL": 4425, "_Find": 4426, "g,": 4427, "l)\n": 4428, "_order\n": 4429, "enc": 4430, "_mode:": 4431, "annel": 4432, "_contents": 4433, "_function.\n\n": 4434, "__parse_data": 4435, "__parse_dataty": 4436, "__parse_dataty_s_sining": 4437, "_DDL-format": 4438, "_DDL-formatted": 4439, "OU": 4440, "omm": 4441, "atal": 4442, "s.get": 4443, "_prec": 4444, "_(t": 4445, "inity": 4446, "()\n)\n": 4447, "_name)\n": 4448, "s.append(": 4449, "Type()\n": 4450, "(s,": 4451, "?\n": 4452, "ype)": 4453, "_doesn't": 4454, "_Construct": 4455, "_\\": 4456, "_str):\n": 4457, "Summary": 4458, "__)": 4459, "_:py:class:`p": 4460, "_:py:class:`pys": 4461, "_%s.\"": 4462, "ses": 4463, "_partitonned": 4464, "_above": 4465, ".items():\n": 4466, "seelf": 4467, "_key=": 4468, "_sorter": 4469, "hen": 4470, "ERM": 4471, "_3\n": 4472, "_Per": 4473, "_numPartitonns=None):\n": 4474, "_expect": 4475, "_driver": 4476, "_greater": 4477, ".union": 4478, "._jrdd": 4479, "py.": 4480, "_(self.": 4481, "_according": 4482, "Partition": 4483, "orrr": 4484, "_parts": 4485, "_can't": 4486, "]),": 4487, "_10)\n": 4488, "_reduced": 4489, "_applied": 4490, "numPartitonns": 4491, ".0])\n": 4492, "_your": 4493, "_dictionary": 4494, "utput": 4495, "\\\\": 4496, ")\n))\n": 4497, "_(\"a\",": 4498, "iat": 4499, "_agg": 4500, "_change": 4501, "age)": 4502, "_[x": 4503, "rable": 4504, "_index.\n\n": 4505, "[0])\n": 4506, "Log": 4507, "_column.\n\n": 4508, "_.format": 4509, "_Column):\n": 4510, "_inform": 4511, "_information": 4512, "_stored": 4513, "_corresponding": 4514, "-----\n": 4515, "ued": 4516, "_self.num": 4517, "_Transform": 4518, "_similarity": 4519, "_path)\n": 4520, "_{0,": 4521, "_LabeledPoint(0.0,": 4522, "_LabeledPoint(1.0,": 4523, "_consider": 4524, "1)\n": 4525, "_defaultValue": 4526, ")\n\n\n\n": 4527, "_**option": 4528, "_methods": 4529, "orator": 4530, "Met": 4531, "_Generates": 4532, "_div": 4533, "Means": 4534, "ture": 4535, "ij": 4536, "_with\n": 4537, "_calling": 4538, "_vocabul": 4539, "_vocabulary": 4540, "_indices,": 4541, "_isinstance(path,": 4542, "cent": 4543, "ration": 4544, "_float,": 4545, ".startswith": 4546, "Pr": 4547, "_b\n": 4548, "inin": 4549, "Support": 4550, "_+---------": 4551, "_+---\n\n-----": 4552, "_self._java": 4553, "{\"": 4554, "_self._jdf.": 4555, "tribute": 4556, "pose": 4557, "_plan": 4558, "_align": 4559, "age|": 4560, "}\".format": 4561, "_indicating": 4562, "``,\n": 4563, "_statistic": 4564, "------+\n--+": 4565, "_removed": 4566, "_You": 4567, "_dro": 4568, "_+---+------+-+\n": 4569, "_values.\n": 4570, ".fill": 4571, "'}": 4572, "_at\n": 4573, ".DataFrame`": 4574, ".execution.arrow": 4575, "At": 4576, "_now": 4577, "stat": 4578, "_formatted": 4579, "```": 4580, "_NAME": 4581, "_NO": 4582, "dot": 4583, "_correction": 4584, "_TF": 4585, "__sift": 4586, "_appropr": 4587, "NaN": 4588, "_metric": 4589, "_abs": 4590, "SubModel": 4591, "_java_stage.": 4592, "Es": 4593, "uid": 4594, "java.time": 4595, "java.time.format": 4596, "java.time.format.Date": 4597, "java.time.format.DateTime": 4598, "java.time.format.DateTimeF": 4599, "java.time.format.DateTimeFermatt": 4600, "],,": 4601, "month": 4602, ".c.clel": 4603, ".c.clelec)\n)\n": 4604, ",\n,\n": 4605, "_lev": 4606, "d+": 4607, "Unquoted": 4608, "_spark.sql(\"": 4609, "_spark.sql(\"SELECT": 4610, ".SQL": 4611, "apply": 4612, "_Custom": 4613, "_Parquet": 4614, "force": 4615, "infer": 4616, "inf": 4617, ".core": 4618, "_access": 4619, "zeros(": 4620, "_sc:": 4621, "_RowMatrix": 4622, "_Q": 4623, "_decom": 4624, "_v2": 4625, "ravel": 4626, "_TypeConverter": 4627, "back_server": 4628, "Server": 4629, "odule": 4630, "_spark.udf.register": 4631, "_sqlContext.createDataFrame": 4632, "Sl": 4633, "Slices": 4634, "._jsc,": 4635, "ormal": 4636, "ponential": 4637, "_Evolving.\n\n": 4638, "och_id": 4639, "_iid": 4640, "subclass": 4641, "_Rais": 4642, "torch": 4643, "_cache_dir": 4644, "_from_tf": 4645, "_tokens_a": 4646, "_[CLS]": 4647, "[SEP": 4648, "_padd": 4649, "_ids)": 4650, "(0)\n": 4651, "_\".join([str(x)": 4652, "_non_": 4653, "_tf_to": 4654, "_pt": 4655, "_hasattr(m,": 4656, "sz,": 4657, "Offset": 4658, "_monotonic": 4659, "i8": 4660, "_self.name": 4661, "_isna": 4662, "MultiIndex": 4663, "_new_codes": 4664, "_DatetimeIndex(['201": 4665, "astype('": 4666, "(ope": 4667, "(opeatorr": 4668, "_interpolation": 4669, "_terminal": 4670, "_B\n": 4671, "(quarter": 4672, "(quarterly": 4673, "_numeric_only": 4674, "_start_date": 4675, "_pd.array": 4676, "_'2017": 4677, "_algo": 4678, "_recogn": 4679, "_(option": 4680, "_(optional": 4681, "_classification": 4682, "_Lo": 4683, "_skip": 4684, "_{}\".format(": 4685, "_clf": 4686, "_locations": 4687, "_Predict": 4688, "_(to": 4689, "_rect": 4690, "_cs": 4691, "_comparis": 4692, "_comparison": 4693, "linal": 4694, "_smaller": 4695, "_faster": 4696, "_[point": 4697, "_[points[": 4698, "s))": 4699, "_+IGNORE": 4700, "_+IGNORE_EX": 4701, "_+IGNORE_EXCEPT": 4702, "_+IGNORE_EXCEPTION": 4703, "_+IGNORE_EXCEPTION_D": 4704, "_+IGNORE_EXCEPTION_DET": 4705, "_+IGNORE_EXCEPTION_DETAIL": 4706, "_+IGNORE_EXCEPTION_DETAIL\n": 4707, "..\n\n": 4708, "_obj\n": 4709, "Null": 4710, "_ArrayType(": 4711, "extend": 4712, "Typ": 4713, "abl": 4714, "_type\n": 4715, "oolean": 4716, "]:\n": 4717, "(at):\n": 4718, "(from": 4719, "_is_datetime64tz_dtype": 4720, "_dataframe": 4721, "30": 4722, "_updated": 4723, "Any": 4724, "hee": 4725, "Row(": 4726, "_Row(age=": 4727, "_thrown": 4728, "_if\n": 4729, "_incre": 4730, "_self.serializer": 4731, "_sreeam": 4732, "_fin": 4733, "vely": 4734, "_self.partitonn": 4735, "(path,": 4736, "_close": 4737, "(S": 4738, "_rest": 4739, "cee": 4740, "_lat": 4741, "Des": 4742, "Deserializer": 4743, "file,": 4744, "_200": 4745, "_f._": 4746, "persist": 4747, "_locally": 4748, ".collect())\n": 4749, "_sampled": 4750, ".sample": 4751, "_fixed": 4752, "ough": 4753, "ier": 4754, "siz": 4755, "otal": 4756, "))\n\n\n": 4757, "ByKey(self,": 4758, "_assumed": 4759, "key,": 4760, "ing,": 4761, "_[2,": 4762, "])]\n": 4763, "(iterator):\n": 4764, "(x)\n": 4765, "_SC": 4766, "Syn": 4767, "loa": 4768, "ing.": 4769, "_y,": 4770, "_0)\n": 4771, "_parti": 4772, "ont": 4773, "_creating": 4774, "_stats": 4775, "_L{": 4776, "_mean,": 4777, "ram": 4778, "20": 4779, "_implementation": 4780, "Parts": 4781, "_keyConverter": 4782, "_valueConverter": 4783, "_file\n": 4784, "_default)\n": 4785, "_qual": 4786, "org.apache.h": 4787, "org.apache.hadoop": 4788, "org.apache.hadoop.": 4789, ".out": 4790, "ritable": 4791, "Codec": 4792, "_Named": 4793, "_NamedTemporary": 4794, "_NamedTemporaryFile": 4795, "atchedSerializer": 4796, "bject": 4797, "_keyed": 4798, "_Inst": 4799, "_merger": 4800, "_receiv": 4801, "_largest": 4802, ".defaultParallelism": 4803, "idence": 4804, "_Experimental\n\n": 4805, "_App": 4806, "_cols,": 4807, "a)": 4808, "_doc\n": 4809, "_[Row(age=2,": 4810, "----+-": 4811, "---------": 4812, "ND": 4813, "_currently": 4814, "_impur": 4815, "_Example": 4816, "_0.5": 4817, "_[1.0,": 4818, "_numTrees": 4819, "orest": 4820, "ing.\n": 4821, "_categories": 4822, "Stinng": 4823, "_registered": 4824, "_schema=None,": 4825, "atess": 4826, "_by\n": 4827, "_Similar": 4828, "_ID": 4829, "_annot": 4830, "e-": 4831, "_sav": 4832, "ible": 4833, "_eff": 4834, "_considered": 4835, "aussi": 4836, "cur": 4837, "s',": 4838, "_\"\"\"Load": 4839, "int,": 4840, "_break\n": 4841, "._jd": 4842, "_width": 4843, "pred": 4844, "sequence": 4845, "ateg": 4846, "_np\n": 4847, ".show()\n": 4848, "_(\n": 4849, "sta": 4850, "_'string": 4851, "(\"age": 4852, "_Row(name=u'Bob',": 4853, "_about": 4854, "')]\n\n": 4855, "_dropp": 4856, "_No": 4857, "_replac": 4858, "_tuple,": 4859, "_probabilities": 4860, "result,": 4861, "_installed": 4862, "_schema\n": 4863, "_\"'": 4864, "\".join(": 4865, "96": 4866, "appop": 4867, "man": 4868, "_0.4": 4869, "_jvm": 4870, "_math": 4871, "_Cre": 4872, "_from_java": 4873, "_idx,": 4874, "_Used": 4875, "_cls(": 4876, "Uid": 4877, "_\"org.apache.sarrk": 4878, "\").ccolect)\n\n\n": 4879, "_general": 4880, "_round": 4881, "_`sc": 4882, "0',,": 4883, "_format.": 4884, "_'year": 4885, "ONE": 4886, "abc": 4887, "_['a',": 4888, "s,s,": 4889, "str,": 4890, "pad": 4891, "lap": 4892, "_1],": 4893, "_``schema": 4894, "id\",": 4895, "_future": 4896, "...|": 4897, "_`pandas.DataFrame`": 4898, "/sql": 4899, "_allowUnquoted": 4900, "Char": 4901, "_columnNameOfCorruptRecord": 4902, "multi": 4903, "_corrupt": 4904, "_``P": 4905, "_``PERM": 4906, "_``PERMIS": 4907, "_``PERMISS": 4908, "_``PERMISSIVE": 4909, "_malformed": 4910, "_``java.time.format.DateTimeFermatt": 4911, "_``yyyy-": 4912, ".\n.\n": 4913, "_``\\\\r": 4914, "mul": 4915, "vm.Python": 4916, "rail": 4917, "Quote": 4918, "_length.\n": 4919, "clusive": 4920, "_system\n": 4921, "_``error": 4922, "ssion": 4923, "comp": 4924, "_StreamingContext": 4925, "s))\n\n": 4926, "_jira_ref": 4927, "[SPARK-": 4928, "Indices": 4929, "_dot": 4930, "_sc.": 4931, "4j": 4932, "Version": 4933, "_ImportError:\n": 4934, "pyarrow": 4935, "_appear": 4936, "(id": 4937, "_running": 4938, "_numSlices": 4939, "_HDF": 4940, "_year": 4941, ".unbounedd": 4942, "RDDs.": 4943, "Active": 4944, "_coerce": 4945, "s.namedt": 4946, "s.namedtup": 4947, "Termination": 4948, "_continu": 4949, "_prag": 4950, "_pragma": 4951, "_pragma:": 4952, "=o": 4953, "_Length": 4954, "_PRETRAIN": 4955, "_resolved_archiv": 4956, "_'{}": 4957, "_logger.info(\"loading": 4958, "_input_id": 4959, "_tokenize": 4960, "inindex": 4961, "_segment_ids": 4962, "_segment_ids.append": 4963, "_lower_case": 4964, "_self.init": 4965, "laell": 4966, "_to_mask": 4967, ".index": 4968, "_DateOffset": 4969, "(result,": 4970, "[mask": 4971, "_0.24": 4972, "putmask": 4973, "_values.\n\n": 4974, "argsort": 4975, "-like,": 4976, "_ExtensionArray": 4977, "'},": 4978, "_gpr": 4979, "_self.grouper": 4980, "_nth": 4981, "_get_option": 4982, "(quarterly)": 4983, "_self._select": 4984, "_pd.date": 4985, "_int(self.": 4986, "_'minor": 4987, "eare": 4988, "_automatically": 4989, "_trained": 4990, ".jinn": 4991, "_Save": 4992, "fy": 4993, "_classes": 4994, "_6,": 4995, "_trim": 4996, "_Given": 4997, "linalg.": 4998, "_Only": 4999, "_number_of": 5000, "_number_of_times": 5001, "_number_of_times_to_up": 5002, "_number_of_times_to_upsample": 5003, "igher": 5004, "_provide": 5005, "/1": 5006, "27": 5007, "_Supported": 5008, "_models": 5009, "-in": 5010, "_b:": 5011, ":..\n\n": 5012, "(type": 5013, "ho": 5014, "_\"in": 5015, "Can": 5016, "_True)": 5017, "Type)": 5018, "conv": 5019, "_allue": 5020, ".k": 5021, "_(len": 5022, ".float": 5023, "_UTC": 5024, "_timesammp": 5025, "__check_series": 5026, "-na": 5027, "-naive": 5028, "_returned.\n\n": 5029, "_pandas.DataFrame": 5030, "_column,": 5031, "5-1": 5032, "Alice',": 5033, "_Gets": 5034, "environ": 5035, "_len(self.": 5036, "_self.pdata": 5037, "_1.5": 5038, "_range(self.": 5039, "_current_chunk": 5040, "tor": 5041, "(path)": 5042, "_file.": 5043, "_\"r": 5044, "AS": 5045, "_via": 5046, "_len(x": 5047, ".comp": 5048, "_all\n": 5049, "recation": 5050, "_self.map(lambda": 5051, "_return\n": 5052, "ennt": 5053, "Lo": 5054, "_rate": 5055, "_that\n": 5056, "_i.e": 5057, "omial": 5058, "_choice": 5059, ".serializer": 5060, ".partitonn": 5061, "_10,": 5062, ".inter": 5063, "v,": 5064, "filter": 5065, "s)\n)\n": 5066, "_3)\n": 5067, "flee": 5068, "artes": 5069, "artesian": 5070, "']\n\n": 5071, "_'\\n": 5072, "allS": 5073, "_StopIteration": 5074, "angu": 5075, "10,": 5076, "istog": 5077, "istogram": 5078, "_2)": 5079, "_Trans": 5080, "_Output": 5081, ".api": 5082, "_associated": 5083, "_class\n": 5084, "ara": 5085, "_sc.parallelize([(\"a\",": 5086, "(\n\n": 5087, "(jrdd": 5088, "_might": 5089, "Func,": 5090, "bit": 5091, "_aver": 5092, "_chang": 5093, "\"])": 5094, ".colle": 5095, "_starts": 5096, "_StorageLevel": 5097, "_unpick": 5098, "Approx": 5099, "entially": 5100, "37": 5101, "=u'Bob')]\n": 5102, "cols)": 5103, "_expressions": 5104, "s..": 5105, "getattr": 5106, "Spec": 5107, "window": 5108, "(window": 5109, "riter": 5110, ".train": 5111, "[2": 5112, "s.\"\"\"\n": 5113, "_None)": 5114, ".\"": 5115, "_configured": 5116, "4J": 5117, ").to": 5118, "table": 5119, "_**options):\n": 5120, "_source.\n\n": 5121, "_table.\n\n": 5122, "(ta": 5123, "a-": 5124, "Default": 5125, "_train(cls,": 5126, "_setting": 5127, "itialModel": 5128, ".cl": 5129, "_callMLlibFunc(\"train": 5130, "aussian": 5131, "_(i,": 5132, "_use\n": 5133, "ulation": 5134, "_named": 5135, "eta": 5136, "_DStream.\n": 5137, "_(i.e.,": 5138, "_beg": 5139, "_interval\n": 5140, "sc._j": 5141, "_|\n": 5142, "asure": 5143, "ategory": 5144, ".first": 5145, "_2|\n": 5146, "_DataFrame(self._jdf": 5147, "_truncate": 5148, "_df\n": 5149, "_|age|": 5150, "_2|Alice|\n": 5151, "='1": 5152, "SparkContext": 5153, "Threshold": 5154, "',,,": 5155, "_type(": 5156, "_isinstance(col,": 5157, "int'),": 5158, "85": 5159, "join": 5160, "_'out": 5161, "_Specify": 5162, "_+-------+": 5163, "_+-------+---": 5164, "_null|\n": 5165, "_rs": 5166, "_columns\n": 5167, "=1)]\n": 5168, "col0": 5169, "_'any": 5170, "fill": 5171, "_+----+------+\n--+": 5172, "_names,": 5173, "_correlation": 5174, "pearson": 5175, "_takes": 5176, "spark.sql.execution.arrow": 5177, "abled'": 5178, "_\"f": 5179, "coun": 5180, "_string.": 5181, "vm,": 5182, "AM": 5183, "_labels,": 5184, "_'h": 5185, "-c": 5186, "_sentinel": 5187, "[0]]\n]\n": 5188, "_specifying": 5189, "_This\n": 5190, "OL": 5191, "_NaN,": 5192, "matrix": 5193, "_Creates": 5194, "Params.": 5195, "_java_stage.ett": 5196, "_embedded": 5197, "imi": 5198, "_identi": 5199, "_col1": 5200, "\"\"\"\n\n": 5201, "ummn": 5202, "=0):\n": 5203, "=date": 5204, "2-2": 5205, "s').ccolect)\n\n\n": 5206, "_format\n": 5207, "'\n\n": 5208, "_Un": 5209, "icro": 5210, "-03-1": 5211, "late": 5212, "_schema:": 5213, "_options:": 5214, "_datas": 5215, "_infers": 5216, "csv": 5217, "ete": 5218, "_:class:`pyspark.sql.types.Data": 5219, "_upper": 5220, "avva": 5221, "_[1]": 5222, "_pandas_udf": 5223, "_functionType": 5224, "_:meth:`pyspark.sql": 5225, "_whole": 5226, "numpy.": 5227, "OrderedDict": 5228, "/sql/": 5229, "_comment": 5230, "_lead": 5231, "_self._set_opt": 5232, "_self._set_opts(": 5233, "dr": 5234, "_inferSchema": 5235, "_escaping": 5236, "(gateway": 5237, ".jvm.": 5238, "_specifies": 5239, "_id,": 5240, "9]": 5241, "Sche": 5242, "Ad": 5243, "_',": 5244, "_np.zeros(": 5245, "index,": 5246, "Features": 5247, "_MLUtil": 5248, "Input": 5249, "RDD(sc,": 5250, "ides": 5251, "rediction": 5252, "rices": 5253, "trix": 5254, "_self._java_matrix": 5255, "_self._java_matrix_wrapper": 5256, "sition": 5257, "RowMatrix": 5258, "_entries": 5259, "__vector": 5260, "__vector_size": 5261, "_s.find('": 5262, "_len(self)": 5263, "values,": 5264, "1d": 5265, "[~": 5266, "np": 5267, "_numCols,": 5268, "_kwargs['": 5269, "_errors": 5270, "Could": 5271, "Channel": 5272, "_accumulator": 5273, "_self.sparkSession": 5274, "_end,": 5275, "_:class:`pand": 5276, "_loss": 5277, "_self,": 5278, "_groups": 5279, "iform": 5280, "_size,": 5281, "_Exponential": 5282, "_self._wrapped": 5283, "query": 5284, "__is": 5285, "_self.save_reduce": 5286, "active": 5287, "__)\n\n": 5288, "_index\n": 5289, "_self._defaultParamMap": 5290, "_self._paramMap": 5291, "_setupFunc": 5292, "_unexpected": 5293, "_'weight": 5294, ".shape,": 5295, "_*input": 5296, "_*inputs,": 5297, "_resolved_archiv_ffile": 5298, "_{}\".format(\n": 5299, "_keys,": 5300, "_is_training": 5301, "_map[": 5302, "_index=": 5303, "_result[": 5304, "bias": 5305, "_init_param": 5306, "2000": 5307, "_log_prob": 5308, ".weight,\n": 5309, "_idx\n": 5310, "_tail": 5311, "aptive": 5312, "_tf_to_pt": 5313, "_tf_to_pt_map": 5314, "layer": 5315, "_attn": 5316, "_Raises\n": 5317, "_------\n": 5318, "freqs.": 5319, "__ONE": 5320, "_pandas.core": 5321, "_MultiIndex(level": 5322, "_MultiIndex(levels=": 5323, "_copy=": 5324, "_copy=c)\n": 5325, "_copy=c)\ny": 5326, "_Index\n": 5327, "=True,\n": 5328, "_slicer": 5329, "_array-like\n": 5330, "_level,": 5331, "_mask.": 5332, "_--\n\n": 5333, "_--\n\n----": 5334, "_--\n\n----\n\n": 5335, "',1',": 5336, "vals": 5337, "_self._wrap": 5338, "_isinnteger": 5339, "_end_slice": 5340, "raise": 5341, "_grouper,": 5342, "_preserve_nans": 5343, "_derivatiess": 5344, "_stubnames": 5345, "_A\n": 5346, "_dt.w": 5347, "_dt.week": 5348, "_dt.weekday": 5349, "_panels": 5350, "Block\n": 5351, "_path=None,": 5352, "_n_": 5353, "_..\n\n\n": 5354, "_continue\n\n": 5355, "face": 5356, ".append(": 5357, "eterm": 5358, "etermine": 5359, "_knn_clf": 5360, "_f:\n": 5361, "_specified.\n": 5362, "_around": 5363, ")),": 5364, "UTF": 5365, "_25": 5366, "isplay": 5367, "_compare": 5368, "_against": 5369, "_np.empty": 5370, "mode": 5371, "_deep": 5372, "uch": 5373, "o_t": 5374, "ages": 5375, "36": 5376, "_'s": 5377, "_['s": 5378, "(s):\n": 5379, "struct<": 5380, "ince": 5381, "__parse_dataty_s_sining(\"": 5382, "_IntegerType\n": 5383, "_byte": 5384, "_ST": 5385, "ING": 5386, "_hasattr(obj,": 5387, "items():\n": 5388, "_type:": 5389, "(field": 5390, "_StructType):\n": 5391, "_conv": 5392, "(),,": 5393, "_rais": 5394, "_infinity": 5395, "ring": 5396, "(3": 5397, "_StringType(),": 5398, "_verify_allue": 5399, "length": 5400, "16": 5401, "iel": 5402, "e):\n": 5403, "igu": 5404, "_saving": 5405, "_time,": 5406, "_explicit": 5407, "_choose": 5408, ".datet": 5409, "_StructField": 5410, "_object.\n": 5411, "_present": 5412, "_passing": 5413, "(cls):\n": 5414, "(zip": 5415, "Linear": 5416, "_super(": 5417, ".sh": 5418, "s.path.join": 5419, "_iterator):\n": 5420, "_v)": 5421, "_mergeCombiner": 5422, "_Disk": 5423, "_DiskBytesSpilled": 5424, ".collect()": 5425, "_disable": 5426, "atath": 5427, "_finall": 5428, "_finally:\n": 5429, "urr": 5430, "(f):\n": 5431, "_Res": 5432, "ource": 5433, "erator": 5434, "(sorted": 5435, "_UTF8": 5436, "_consist": 5437, "_None.\n\n": 5438, "_3)": 5439, "_tuple):\n": 5440, "_'m": 5441, "efix": 5442, "(\\": 5443, "ODE": 5444, "_doc__": 5445, "MEM": 5446, "MEMOR": 5447, "MEMORY": 5448, "_across": 5449, "StorageLevel": 5450, "_until": 5451, "geg": 5452, "_preservesPartitiining=": 5453, "_self.mapPartitonnsWithIndex": 5454, "_flat": 5455, "_4),": 5456, "_iterable": 5457, "istinct": 5458, "False,": 5459, "s[1:": 5460, "_(not": 5461, "(sample": 5462, "_serialized": 5463, "_7,": 5464, "=port": 5465, "._onnf": 5466, "(tmp": 5467, "olll": 5468, "_grouped": 5469, "=en": 5470, "_(x": 5471, "_self.ctx._jvm.": 5472, "_vals": 5473, "_rdd.tree": 5474, "_-5\n": 5475, "_modify": 5476, "_cap": 5477, "_50": 5478, "_b):\n": 5479, "[1],": 5480, "_toget": 5481, "_as\n": 5482, ".fil": 5483, "Scann": 5484, "Dataset": 5485, "_dict\n": 5486, "RD": 5487, "_qualified": 5488, "_\"org.apache.hadoop.": 5489, "Seriali": 5490, "(input": 5491, "(list": 5492, "u)\n\n": 5493, "_ext": 5494, "Zero": 5495, "_arbit": 5496, "_arbitrary": 5497, "_fn": 5498, "_x.": 5499, "\"],": 5500, "_java_storage_level": 5501, "iss": 5502, "_done": 5503, "imate": 5504, "_load_from": 5505, "(c)": 5506, "_%s'": 5507, "_SparkSession.": 5508, "_-1).": 5509, "condition": 5510, "(\"name": 5511, "_Comput": 5512, ".map(_convert_to_vector": 5513, "_data:": 5514, "_labeled": 5515, "_value.\n": 5516, "Vec": 5517, "(mo": 5518, "_maxDepth": 5519, "_numClasses": 5520, "}.\n": 5521, "_calculation": 5522, "_\"g": 5523, "_pyspark.mllib.regressonn": 5524, "_]\n": 5525, "_0.5\n": 5526, "100,": 5527, "_iterations": 5528, "_100)\n": 5529, "_self._conf": 5530, "(\"spark": 5531, "_self.current": 5532, "_Col": 5533, "_Sets": 5534, "_decorator": 5535, "tp:": 5536, "tp://": 5537, "n\n": 5538, "_name:": 5539, "_'''": 5540, ".toArray": 5541, "wer": 5542, "_represen": 5543, "_represeninng": 5544, "Unit": 5545, "Pytonn": 5546, "_batching": 5547, "_which\n": 5548, "ered": 5549, "_window(": 5550, "(**": 5551, "Proj": 5552, ".split('": 5553, "_label,": 5554, "unn": 5555, "_Sc": 5556, "_df1": 5557, "_html": 5558, "n\"": 5559, "_logical": 5560, "_saved": 5561, ".join(df": 5562, "_parallel": 5563, ".count()\n": 5564, "mi": 5565, "ed)": 5566, "_\".join(": 5567, "_ValueError(\"col": 5568, "_(float": 5569, ".dtypes\n": 5570, "Name:": 5571, "_outer": 5572, "_specific": 5573, "_(string": 5574, "`).\n": 5575, ".0),": 5576, "_deduplic": 5577, "_3]": 5578, "_can\n": 5579, "_dropped": 5580, "_+---+------+-+\n--+\n": 5581, "_80|": 5582, "_aliases": 5583, "_dict,": 5584, "alid": 5585, "_len(to": 5586, "_were": 5587, "_mixed": 5588, "_double": 5589, "ently": 5590, "(self)\n": 5591, "_reas": 5592, "_reason": 5593, "__exception": 5594, "__exception_message": 5595, "=False)\n\n": 5596, "_2.,": 5597, "__make_pretty": 5598, "*\n\n\n": 5599, "_SE": 5600, "_intercept": 5601, "validate": 5602, "1.0": 5603, "heap,": 5604, "_appropratte": 5605, "Trans": 5606, "_heap[": 5607, "next": 5608, "_-=": 5609, "_coefficient": 5610, "...,": 5611, "_:py:class:`pysarrk": 5612, "_validation": 5613, "_estimator,": 5614, "Estimator": 5615, "ence.\n": 5616, "_uid": 5617, "_creates": 5618, "_broadcast": 5619, "_[Row(r": 5620, "(c),),": 5621, "atur": 5622, "offset": 5623, "iff": 5624, "dddd": 5625, "_common": 5626, "_df.select(from": 5627, "_delimit": 5628, "_len,": 5629, "_repeat": 5630, "repeat": 5631, "(dfalll": 5632, "_inferr": 5633, "_Throw": 5634, "[]": 5635, "_beginn": 5636, "_INT,": 5637, "_True|": 5638, ".G": 5639, "ALAR": 5640, "_PAN": 5641, "_PANDA": 5642, "_PANDAS": 5643, "_self._jread": 5644, "_self._jreader": 5645, "_:class:`pyspark.sql.types.StructTpee`": 5646, "chhe": 5647, "_\"\"\"Loads": 5648, "_meets": 5649, "_``columnNameOfCorruptRecord": 5650, "_``\\\\n": 5651, ".parquet": 5652, "_whose": 5653, "_skipp": 5654, "_option\n": 5655, "_self._spark": 5656, "_``column``": 5657, "_exists.\n\n": 5658, "overwrite": 5659, "_Over": 5660, "exist": 5661, "aess": 5662, "_sts": 5663, "_standardize": 5664, "_standardize_jira_ref": 5665, "][": 5666, "IB": 5667, ").strip": 5668, "SVM": 5669, "_minPartitonn": 5670, "_Hadoop-s": 5671, "_Hadoop-supported": 5672, "[-1": 5673, "Dense": 5674, "position": 5675, "_Matrix": 5676, "_DataF": 5677, "_DataFrames": 5678, "_AssertionError:": 5679, "_mismatch\n": 5680, "_array([": 5681, ".squared_distance": 5682, "_result\n\n": 5683, "_v1": 5684, "/d": 5685, "ffer": 5686, "_sc._gateway": 5687, "_java_import": 5688, ".jvm,": 5689, "_nChannel": 5690, "_2D": 5691, "_inner": 5692, "_profile": 5693, "_``None": 5694, "StreamingQuery": 5695, "ght": 5696, "_way": 5697, "_HDFS": 5698, "_blocks,": 5699, "-t": 5700, "_pivot": 5701, "_``Window": 5702, "RDD\",": 5703, "_sc._jsc,": 5704, "R(s": 5705, "R(s(sc,": 5706, "_numRows,": 5707, "atalog": 5708, "_self._create": 5709, "_hack": 5710, "_sdf.write": 5711, "_sdf.writeStream": 5712, "_epoch_id": 5713, "Option": 5714, "_PRO": 5715, "_PROT": 5716, "_PROTOC": 5717, "_PROTOCOL": 5718, "module": 5719, "_clsdict": 5720, "ref": 5721, "_issubclass": 5722, "__dd": 5723, "[p": 5724, "(tf": 5725, "_archive_file": 5726, "_NAME)\n": 5727, "_'{}'": 5728, "_answer_text": 5729, "_offset\n": 5730, "_is_max": 5731, "_tok_text": 5732, "_orig_text": 5733, "_ns_to": 5734, "_ns_to_s": 5735, "_ending": 5736, "_`ber": 5737, "inese": 5738, "_offsets": 5739, "_(cp": 5740, "_vocab_file": 5741, "_proess": 5742, "_dtype=np.int64": 5743, "_t1": 5744, "_masked_lm": 5745, "_neg_samples": 5746, "tie": 5747, "cannot": 5748, "Datetime": 5749, "riod": 5750, "_MultiIndex.\n\n": 5751, "_ValueError(msg": 5752, "_0.24.0\n\n": 5753, "leell": 5754, "-01',1',": 5755, "-01-',',": 5756, "(val": 5757, "_idx1": 5758, "_pd.Index([": 5759, "(other)\n\n": 5760, "_self.get_indexer": 5761, "_indexer,": 5762, "indexer": 5763, "_np.arange": 5764, "(item": 5765, "_start_slice": 5766, "_cls.__r": 5767, "_array_like": 5768, "_extension": 5769, "_pd.DataFrame({": 5770, "_limit_are": 5771, "_limit_area": 5772, "pol": 5773, "_along": 5774, "},\n": 5775, "_wide": 5776, "_3.4\n": 5777, "_self._selected": 5778, "_df.groupby('A": 5779, "_dt.weekday()": 5780, "_datetime-like,": 5781, "_`data": 5782, "Array>\n": 5783, "_Length:": 5784, "_pd.date_range(start": 5785, "_weekmask": 5786, "_pairwise": 5787, "_'major": 5788, "_na_position": 5789, "_``label": 5790, "earest": 5791, "irect": 5792, "aw": 5793, "(_i": 5794, "_left)": 5795, "_There": 5796, "_width,": 5797, "_5),": 5798, "_numbers": 5799, "/C": 5800, "mages": 5801, "conver": 5802, "_search": 5803, "31": 5804, "_[{": 5805, "_points[": 5806, "48": 5807, "_omit": 5808, "INT": 5809, "Strelt": 5810, "_DOU": 5811, "_DOUB": 5812, "_DOUBLE": 5813, "on.": 5814, "name:": 5815, "_row.\n": 5816, "_dict__": 5817, "(dt):\n": 5818, "_isinstance(d": 5819, "_\"\"\"re": 5820, "_row:": 5821, "Type())": 5822, "))\n)\n": 5823, "234": 5824, "(None": 5825, "_msg(\"": 5826, "_ttypes": 5827, "_acceptable": 5828, "_acceptable_types": 5829, "_%r\"": 5830, "_types\n": 5831, "_err": 5832, "binary": 5833, "__check_series_onn": 5834, "__check_series_onnve": 5835, "__check_series_onnve_t": 5836, "_adj": 5837, "2015": 5838, "-01-0": 5839, ".datetime": 5840, "_including": 5841, "_\\\\\n": 5842, "_an\n": 5843, "_DataFrame):\n": 5844, "_os.environ": 5845, "_combin": 5846, "_self.data": 5847, "_performance": 5848, "_batch,": 5849, ".dump_sreeam": 5850, ".cle": 5851, "_External": 5852, "_True:\n": 5853, "ey,": 5854, "_consum": 5855, "_ser": 5856, "_signal": 5857, "_exit": 5858, "_Read": 5859, "_makes": 5860, "_UTF8Deserializer": 5861, "ystem": 5862, "UN": 5863, "_:\n": 5864, "_sorted(rdd": 5865, "_on_stop": 5866, "_x)": 5867, "_4],": 5868, "use": 5869, "_Deprecation": 5870, "_DeprecationWarning": 5871, "_stacklevel": 5872, "egative": 5873, "_loaded": 5874, "_memory.\n\n": 5875, "collect": 5876, "(with": 5877, "_happ": 5878, "_happen": 5879, "_determin": 5880, "[s": 5881, "_12": 5882, "_duplicate": 5883, "And": 5884, "_partitonnFunc=port": 5885, "_partitonnFunc=portable_hash": 5886, "_x):\n": 5887, "_kv:": 5888, "ales": 5889, "alesce": 5890, "_same\n": 5891, ".groupBy": 5892, "_pipe": 5893, "_func(iterator):\n": 5894, "_i\n": 5895, "_Ap": 5896, "ount": 5897, "allSite": 5898, "(add": 5899, "_ValueError(\"Cannot": 5900, "ally,": 5901, "_those": 5902, "_combine": 5903, "_add,": 5904, "aced": 5905, "buckets": 5906, "_([": 5907, "_minv": 5908, "_partsScann": 5909, "try": 5910, "_Otherwise,": 5911, "_saveAs": 5912, "_data.\n\n": 5913, "Class:": 5914, "_compressionCodec": 5915, "_types.": 5916, "_NamedTemporaryFile(d": 5917, "_NamedTemporaryFile(delete": 5918, "(Pickle": 5919, ")\nr)\n": 5920, "_BatchedSerializer": 5921, "TextFile": 5922, "_toler": 5923, "foo": 5924, "_bytes": 5925, "_function,": 5926, ")\ne": 5927, "Tru)\n\n": 5928, "_users": 5929, "_append": 5930, ".de": 5931, "ala": 5932, "ctonn": 5933, "_subtract": 5934, "ssib": 5935, "(100": 5936, "_1):\n": 5937, "eli": 5938, "'))": 5939, "_[float": 5940, ").get": 5941, "_<ht": 5942, "_together": 5943, "_barrier": 5944, "__to_seq": 5945, "__un": 5946, "_unary": 5947, "_df.select(df.": 5948, "roo": 5949, "_+-----": 5950, "_+-----+": 5951, "_+-----+---": 5952, "-------": 5953, "--------": 5954, "CA": 5955, "(ve": 5956, "_Computes": 5957, "_build": 5958, "_function.\n": 5959, "_sc._jvm.org.apache.sarrk.mllib": 5960, "Classi": 5961, "_0:": 5962, "_instances": 5963, "_Decision": 5964, "_DecisionT": 5965, "_DecisionTree": 5966, "_LabeledPoint\n": 5967, ".0]),\n": 5968, "_[3": 5969, ".0],": 5970, "variance": 5971, "_regressonn": 5972, "_SparseVector(2,": 5973, "_property": 5974, "If": 5975, "utor": 5976, "_None):\n": 5977, "Bu": 5978, ")\n()\n": 5979, "_connection": 5980, "uth": 5981, "arrierTask": 5982, "_SPARK-2": 5983, "_initialized": 5984, "_name=None,": 5985, "_attrs": 5986, "_tem": 5987, "_templ": 5988, "_template": 5989, "_.replace": 5990, "_.replace(\"": 5991, "_.replace(\"$": 5992, "=-1": 5993, "_1.0)": 5994, "KMeans": 5995, "_effect": 5996, "_converg": 5997, "The": 5998, "metric": 5999, "ities": 6000, "aonon": 6001, "_timeUnit": 6002, "On": 6003, "(dstream": 6004, "s\",": 6005, "rior": 6006, "_py2": 6007, "_py2java": 6008, "_py2java(sc,": 6009, "_*arg": 6010, "_Time": 6011, "esst": 6012, "_`end`": 6013, "uction": 6014, "_minSupport": 6015, ")\nn": 6016, ".ml": 6017, "[i]\n": 6018, "_Attribute": 6019, "_Log": 6020, "_a|": 6021, "tical": 6022, "_lon": 6023, "_longer": 6024, "_max_num": 6025, "only": 6026, "_inside": 6027, "loall": 6028, "_event": 6029, "ayThreshold": 6030, "iness": 6031, "ordin": 6032, ".with": 6033, "pecif": 6034, "_df.join(df": 6035, "key\",": 6036, "_(float,": 6037, "age',": 6038, "_cols:": 6039, "ascending": 6040, "_expand": 6041, "_expr": 6042, "=1),": 6043, "that": 6044, "_followed": 6045, "_difference": 6046, "ertain": 6047, "height|": 6048, "subset": 6049, "_`value": 6050, "_`value`": 6051, "_|null": 6052, "_|null|": 6053, "_column.\n": 6054, "_floating": 6055, "_None.\n": 6056, "_Valid": 6057, "_necessary\n": 6058, "_deterministic": 6059, "_column\n": 6060, "(result)\n": 6061, "msg": 6062, ",\n\n\n": 6063, "_name=name": 6064, "_\"\\n": 6065, "_Expected": 6066, ":\n):\n": 6067, "_mdf": 6068, "_mdfile": 6069, ".write(\"": 6070, "(-": 6071, "_calls": 6072, "RegressionModel": 6073, "_item):\n": 6074, "(heap,": 6075, "_heap[0]": 6076, "__siftup": 6077, "_moving": 6078, "_inputs": 6079, "_pull": 6080, "_order,": 6081, "_rema": 6082, "pearman": 6083, "_Vectors.dense": 6084, "_collectSubModel": 6085, "_key.": 6086, "_JavaParams.": 6087, "Fo": 6088, "_Copy": 6089, "Validation": 6090, "ValidationSplit": 6091, "_'%s'": 6092, "_name__": 6093, "_\"\"\"A": 6094, "_group.\n\n": 6095, "coummn": 6096, "_['a": 6097, "_All": 6098, "(dfata": 6099, "_default,": 6100, "H:": 6101, "H:m": 6102, "H:mm": 6103, "(for": 6104, "second": 6105, "Mon": 6106, "dte": 6107, "sl": 6108, "caten": 6109, ").alias('s').ccolect)\n\n\n": 6110, "ello": 6111, "(ds,s,": 6112, "_array.\n\n": 6113, "MAP": 6114, "Nond": 6115, "_:class:`pyspark.sql.types.DataTpee`": 6116, "_Do": 6117, "_UDFs": 6118, "ar\n": 6119, "_throws": 6120, "_return_type": 6121, "_@pandas_udf(\"": 6122, "-0.": 6123, "_group\n": 6124, "_recomm": 6125, "(mean": 6126, "_False|": 6127, "\\x": 6128, "EvalType": 6129, "EvalType.SQL": 6130, "_loading": 6131, "_mode=None,": 6132, "_``schema``": 6133, "_ignores": 6134, "MAL": 6135, "_format.\n": 6136, "'T": 6137, "_lineSep:": 6138, "_lineSep=": 6139, "_lineSep=lin": 6140, "_ignoreLead": 6141, "_ignoreLeadingWhiteSpace": 6142, "_ignoreT": 6143, "_ignoreTrail": 6144, "_ignoreTrailingWhiteSpace": 6145, "_nullValue": 6146, "_charTo": 6147, "_charToEsc": 6148, "_charToEscape": 6149, "_charToEscapeQuote": 6150, "_charToEscapeQuoteE": 6151, "_charToEscapeQuoteEin": 6152, "_charToEscapeQuoteEinaping": 6153, "_emptyValue": 6154, "pitit": 6155, "_Append": 6156, "ifexist": 6157, "_self.mode": 6158, "losed": 6159, "ynam": 6160, "ud": 6161, "check": 6162, "_'A": 6163, ".se": 6164, "_URI": 6165, "alllg.": 6166, "_:param:": 6167, ".I": 6168, "_singular": 6169, "values\n": 6170, "([1.,": 6171, ".array": 6172, "_np.dot": 6173, "[j]": 6174, "_values)\n": 6175, "_like,": 6176, "_numpy.ndarray": 6177, "nonzero": 6178, "Ptr": 6179, "_object,": 6180, "_CON": 6181, "_reference": 6182, "_caller": 6183, "_java_import(gateway": 6184, "_java_import(gateway.jvm,": 6185, "_callback_server": 6186, "vT": 6187, "pylist": 6188, "_self.pro": 6189, "stats.": 6190, "_end=None,": 6191, "_verifySchema": 6192, "_:class:`StreamingQuery": 6193, "_avro": 6194, "_prev": 6195, "antiate": 6196, ".stop": 6197, "_self._jvm.Python": 6198, "ryp": 6199, "ryption": 6200, "Path": 6201, "_d_": 6202, "cum": 6203, "_den": 6204, "_`sc.defaultParallelism": 6205, "_integer).\n": 6206, "_RandomRDDs.": 6207, "Vect": 6208, "_self._convert": 6209, "_collections.namedtup": 6210, "_collections.namedtuple": 6211, "gress": 6212, "_'.join(": 6213, "_5:\n": 6214, "_hasha": 6215, "__ddict": 6216, "_typ": 6217, "vert": 6218, "[pa": 6219, "[param": 6220, "current": 6221, "StringLength": 6222, "_name:\n": 6223, "_https://g": 6224, "_https://gith": 6225, "_https://github": 6226, "_https://github.com/": 6227, "_**kwargs\n": 6228, "_selected": 6229, "s.OrderedDict": 6230, "ED_MODE": 6231, "ED_MODEL": 6232, "ED_MODEL_ARCHIVE": 6233, "ED_MODEL_ARCHIVE_": 6234, "mis": 6235, "_logger.info(\n": 6236, ".__class__._amame": 6237, "_BER": 6238, "_BERT": 6239, "_learn": 6240, "_input_type": 6241, "_tokens.append(\"": 6242, "_logger.info(\"input": 6243, "_unique_id": 6244, "example": 6245, "_to_orig": 6246, "_max_seq_length\n": 6247, "_scores": 6248, "logit": 6249, "_ns_to_s_map": 6250, "_outpu_t": 6251, "_shap": 6252, "(vocab": 6253, "_average": 6254, "do_lower_case": 6255, "_self.n": 6256, "_0x2": 6257, "_mc": 6258, "_to_offset": 6259, "_Timedelta": 6260, "requency": 6261, "_Int64Inexx([1,": 6262, "_is_object": 6263, "_self._constructor": 6264, "_ensure_platform": 6265, "any():\n": 6266, "_algos.": 6267, "_str\n": 6268, "[mask]": 6269, "__validate": 6270, "_pd.Index([1,": 6271, "=False)": 6272, "_DatetimeIndex,": 6273, "_DatetimeIndex(['2018": 6274, "GH": 6275, "innde": 6276, "_right_indexer": 6277, "y:\n):\n": 6278, "_mask,": 6279, "_np.putmask": 6280, "_fro": 6281, "titem": 6282, "_'ignore": 6283, "_ndarray\n": 6284, "loord": 6285, "loordiv": 6286, "uediv": 6287, "values)\n": 6288, "_get_ro": 6289, "axi": 6290, "_self.obj": 6291, "kima": 6292, "_values.ndim": 6293, "_'pyarrow": 6294, "oup": 6295, "amid": 6296, "irth": 6297, "_2.9\n": 6298, "_cumcount": 6299, "/1/": 6300, "_generating": 6301, "_prep": 6302, "_results.append": 6303, "_minp": 6304, "_mgr": 6305, "items',": 6306, "_self._get_axis": 6307, "_xnull": 6308, "_``labels``": 6309, "_recognition": 6310, "_name.\n\n": 6311, "\u2500\u2500": 6312, "sen": 6313, "_os.path.is": 6314, "_bounding": 6315, "ein": 6316, "istance": 6317, "izes": 6318, "_larger": 6319, "_box": 6320, "open(": 6321, "_(top,": 6322, "_bottom,": 6323, "t,,": 6324, "_bounds": 6325, "hog": 6326, "_Wh": 6327, "_accur": 6328, "PU": 6329, "_batches": 6330, "s=None,": 6331, "_landmarks": 6332, "_[points[6": 6333, "_ValueError(\"Invalid": 6334, "_[np.": 6335, "imple": 6336, "byte": 6337, "a:": 6338, "_16": 6339, ")))\n": 6340, ")\n)": 6341, ")\ne)\n\n": 6342, "_Parse": 6343, "_SparkContext._active_spark_cteext": 6344, "stst": 6345, "_Byte": 6346, "_Short": 6347, "__infer": 6348, "_DataType": 6349, "_Row\n": 6350, "_has_null": 6351, "_has_nulltype": 6352, "(atta": 6353, "(v)": 6354, "(name)": 6355, "_overflow": 6356, "_assert_ac": 6357, "_assert_accept": 6358, "_assert_acceptabl": 6359, "_assert_acceptabl_ttypes": 6360, "_verify_in": 6361, "%d": 6362, "por": 6363, "pepe": 6364, "_returned.": 6365, "_s:": 6366, "_pandas.Series": 6367, "_pyspark.sql.util": 6368, "_pyspark.sql.utils": 6369, "_lz": 6370, "_pdf[": 6371, "_dtype,": 6372, "New": 6373, ".tz_localize": 6374, "[n": 6375, "Na": 6376, "_b)": 6377, "_object.\n\n": 6378, "2\",": 6379, "(\"\"": 6380, "d(": 6381, "_turn": 6382, "training": 6383, "_self.has": 6384, "l,": 6385, "_DI": 6386, "(dir": 6387, "_processes": 6388, "_lookup": 6389, "[k]": 6390, "_v\n": 6391, "_disk": 6392, "_Memory": 6393, "_MemoryBytesSpilled": 6394, "(os.path.join": 6395, "_range(self.partitonn": 6396, "_compatible": 6397, "_merged": 6398, "s())\n": 6399, "h,": 6400, "allize": 6401, "=re": 6402, "(path)\n": 6403, "_small,": 6404, "_self.f": 6405, "s(),": 6406, "_merging": 6407, "_worker": 6408, "_cause": 6409, "lient": 6410, "ush": 6411, "_builtin": 6412, "ness": 6413, "_'k": 6414, "_s[": 6415, "_liter": 6416, "StorageLe": 6417, "_rdd.": 6418, "_Added": 6419, "_on_stopiter": 6420, "_on_stopiteration": 6421, "_tra": 6422, "=2)\n": 6423, "(.cco": 6424, "_total\n": 6425, "_value:": 6426, "_splits": 6427, "(True,": 6428, "_5\n": 6429, "_self.sample": 6430, "99": 6431, "_determined": 6432, "_we're": 6433, "_guarantee": 6434, "elta,": 6435, "gamma": 6436, "_RDD(self._j": 6437, "_keyfunc": 6438, "_Re": 6439, "_(0,": 6440, "tionon": 6441, ").sort": 6442, "_tmp": 6443, "_('d',": 6444, "_('a',": 6445, "_1).": 6446, "_range(0,": 6447, "_partitonnFunc=portable_hash):\n": 6448, "Partitonns,": 6449, "_command": 6450, "_shell": 6451, "(target": 6452, ".std": 6453, "arar": 6454, "_f):\n": 6455, "t)": 6456, "_Can": 6457, "_StopIteration:\n": 6458, "ggregate": 6459, "_non-d": 6460, "_langu": 6461, "_Scala": 6462, "_Thu": 6463, "_into\n": 6464, "_b,": 6465, "(min": 6466, "_counter": 6467, "mer": 6468, "_\"b\",": 6469, "parable": 6470, "[1])\n": 6471, "2]\n": 6472, "Iterator": 6473, "_works": 6474, "_partsScanned": 6475, "Try": 6476, ".api.p": 6477, ".api.pon": 6478, "_Writable": 6479, "_\"org.apache.hadoop.io": 6480, "_NamedTemporaryFile(delete=True)\n": 6481, "ar',": 6482, ".java": 6483, "lan": 6484, "_parallelism": 6485, "_self.com": 6486, "_func):\n": 6487, "_but\n": 6488, "_immed": 6489, "_immediat": 6490, "_immediately": 6491, "orerr": 6492, "(size": 6493, "s.items():\n": 6494, "(jrdd,": 6495, "_custom": 6496, "_functions.\n\n": 6497, "_three": 6498, "=True)": 6499, ".mapValues": 6500, "s()\n": 6501, "'s\n": 6502, "_0.1": 6503, "ssibly": 6504, "_my": 6505, "air": 6506, "s[k": 6507, "_...,": 6508, "-based": 6509, "_efficient": 6510, "_not.\n": 6511, "_confidence": 6512, "95": 6513, "=0.0": 6514, ".)\n": 6515, "From": 6516, "converter": 6517, "_ddoc": 6518, "_Column)": 6519, "arart": 6520, "_name=u'Bob')]\n": 6521, "_len(cols)": 6522, "ired": 6523, "=2),": 6524, "stt(": 6525, ".getOrCreate": 6526, "unonion": 6527, "_1|\n": 6528, "_transformation": 6529, "_Call": 6530, "_model.\n": 6531, "Top": 6532, "Word": 6533, "_impurity": 6534, "_Training": 6535, "_[\n": 6536, "_7\n": 6537, "_gradient": 6538, "ost": 6539, "king": 6540, ".tr": 6541, "key]": 6542, "vironment": 6543, "(elem": 6544, "db": 6545, "_tables": 6546, "_includ": 6547, "function": 6548, "_please": 6549, "_man": 6550, "wrap": 6551, "_options)\n": 6552, "arrierTaskContext": 6553, "_br": 6554, "stack": 6555, "_`self": 6556, "_kwargs\n": 6557, ")'": 6558, "isible": 6559, "-me": 6560, "##": 6561, "s`": 6562, "Cent": 6563, "Model\",": 6564, "_starting": 6565, "`\\": 6566, "_nonn": 6567, "Factor": 6568, "_partic": 6569, "opulation": 6570, "_weighted": 6571, "_TypeError(\"path": 6572, "centration": 6573, "_words": 6574, "ha": 6575, "_prior": 6576, "ly\n": 6577, "(self._sc,": 6578, "_DStream.\n\n": 6579, "record": 6580, "Files": 6581, "(pre": 6582, "_`other": 6583, "(end": 6584, "ReduceFunc": 6585, "_window,": 6586, "_b.": 6587, "_setParam": 6588, "_setParams(self,": 6589, "Col=\"": 6590, "DB": 6591, "Span": 6592, "seeq": 6593, "_+----------+-+\n": 6594, "_fun": 6595, "Measure": 6596, "_converting": 6597, "_:class:`Row": 6598, "().s": 6599, ").show()\n": 6600, "(oterr": 6601, "ager": 6602, "_checkpoint\n": 6603, "atermark": 6604, "_updates": 6605, "_cases": 6606, "_:class:`DataFrame`\n\n": 6607, "_\"name": 6608, "_Row(age=5,": 6609, "_depend": 6610, "_However,": 6611, "7,": 6612, ".0)": 6613, "_(is": 6614, "_\",": 6615, "_represents": 6616, "=0)\n": 6617, "_dtypes": 6618, "_height=80": 6619, "_``c": 6620, "_Columns": 6621, "_statistics": 6622, "_|s": 6623, "-+\n\n": 6624, "--+---": 6625, "arry": 6626, "icc": 6627, "edData": 6628, "(age)": 6629, "_intersect": 6630, "_certain": 6631, "_drops": 6632, "_10|": 6633, "'.\n": 6634, "_None.": 6635, "_1}": 6636, "_all(": 6637, "_Got": 6638, "_quantile": 6639, "s.corr": 6640, "73": 6641, "_attempt": 6642, "_instance,": 6643, ".withColumn": 6644, "_attemp": 6645, "_attempedd": 6646, "_\"'spark.sql.execution.arrow": 6647, "_4.": 6648, "info.get": 6649, "down": 6650, "_tolerance": 6651, "_model.set": 6652, "_returnitem": 6653, "__heapify": 6654, "size,": 6655, "one,": 6656, "_result[0]]\n]\n": 6657, "Corr": 6658, "zeros": 6659, "_new_ja": 6660, "atistic": 6661, "epm": 6662, "_instance.\n": 6663, "_epms,": 6664, "_aarray": 6665, "__java_obj": 6666, ".spark": 6667, "extra": 6668, "=\"\"": 6669, "_ja_c": 6670, "eft": 6671, "_Converts": 6672, "08": 6673, "-10": 6674, "').alias('": 6675, "'.c.clelec)\n)\n": 6676, "',)],": 6677, "(time": 6678, "uni": 6679, "_ca": 6680, "pat": 6681, "ABC": 6682, "_['s',": 6683, "_t_to": 6684, "_pattern,": 6685, "rc": 6686, "_overlap": 6687, "_Collection": 6688, "_['data": 6689, "_['data'])\n": 6690, "_spark.createDataFrame(data,": 6691, "_:class:`Struct": 6692, "(dfalllue,": 6693, "_[Row(json": 6694, "int>": 6695, "_returnType=": 6696, "oh": 6697, "SQL": 6698, "Decimal": 6699, "_(str,": 6700, "_`pandas.Series": 6701, "_:meth:`pyspark.sql.": 6702, "_pandas_udf,": 6703, "_PandasUDFType\n": 6704, "_GROUP": 6705, "ED_MAP": 6706, "_PandasUDFType.G": 6707, "_PandasUDFType.GROUP": 6708, "707": 6709, "81": 6710, "_columns=['": 6711, "ED_A": 6712, "ED_AG": 6713, "ED_AGG": 6714, "_copied": 6715, "\\x01": 6716, "_eval": 6717, "(value):\n": 6718, "__set": 6719, "fers": 6720, "Sing": 6721, "slash": 6722, "_``PERMISSIVE``": 6723, "_``null": 6724, "_``spark.sql.column": 6725, "_``spark.sql.columnNameOfCorruptRecord": 6726, "SS": 6727, "('python": 6728, "sc.": 6729, "_paths": 6730, "_encoded": 6731, "_UTF-8": 6732, "forceSchema": 6733, "_uses\n": 6734, "_2.2": 6735, ".csv": 6736, "=com": 6737, "tee": 6738, "_orc": 6739, "_supp": 6740, "icates": 6741, "_jpro": 6742, "_self._spark._s": 6743, "_Overwrite": 6744, "_Sil": 6745, "_Silently": 6746, "_df.write": 6747, "(tempflee": 6748, "_'data": 6749, "_'data'))\n": 6750, "ide,": 6751, ".mkdte": 6752, "nap": 6753, "nappy": 6754, "ret": 6755, "s-": 6756, "_received": 6757, "_assignee": 6758, "id,": 6759, "SP": 6760, "_spaces": 6761, ".indices": 6762, "=False,\n": 6763, "_squ": 6764, "_undefined": 6765, "_boundaries": 6766, "_approach": 6767, ".call(\"": 6768, "_values)": 6769, "_mat.": 6770, "_\"dimension": 6771, "en)\n": 6772, "_a.dot": 6773, "([[1,": 6774, "_NOT": 6775, "ra)\n\n": 6776, "_allues": 6777, "numRows,": 6778, ".cum": 6779, "(np": 6780, "ptr": 6781, "_sc._gateway.jvm.": 6782, "_py4j": 6783, "_Loose": 6784, "_LooseVersion": 6785, "_popen": 6786, "_HO": 6787, "_HOME": 6788, "=c": 6789, "/c": 6790, "_ocvT": 6791, "_ocvTypes": 6792, "_1.9": 6793, "ots": 6794, "_\"-": 6795, "_Row(id": 6796, "JavaFunction": 6797, "_javaClass": 6798, ").co": 6799, "_age=1)]\n\n": 6800, "iserr": 6801, "_`this": 6802, "_result.\n\n": 6803, "rd": 6804, "_\"w\")": 6805, "_key\n": 6806, "s)):\n": 6807, "sequent": 6808, "_Or": 6809, "_``Window.unbounedd": 6810, ":\n\n\n": 6811, "_`sc.defaultParallelism`).\n": 6812, "_abs(stats.": 6813, "_0.1\n": 6814, "_distribution\n": 6815, "_expMean": 6816, "_expSt": 6817, "_expStd": 6818, "_Gamma": 6819, "_abs(mat": 6820, "_by_name": 6821, "_self\n": 6822, "__old": 6823, "__old_namedtuple": 6824, "()`": 6825, "_self._jsq": 6826, "_DataFrame/": 6827, "_DataFrame/Dataset": 6828, "_queryName": 6829, "Batch": 6830, "batch": 6831, "_module__": 6832, "_args,": 6833, "_hashalee": 6834, "oize": 6835, "__'": 6836, "_Write": 6837, "_TypeConverters.": 6838, "Param(pa": 6839, "_Chang": 6840, "_tf_weights": 6841, "_m_name": 6842, "_'weight')\n": 6843, "_e.": 6844, "_e.args": 6845, ".shape)\n": 6846, "_Instantiate": 6847, ".__class__._amame__,": 6848, "_tokenizer.token": 6849, "_Account": 6850, "_padding": 6851, "_len(input_ids)": 6852, "_(example": 6853, "_version_2": 6854, "_version_2_with": 6855, "_version_2_with_negative": 6856, "agrap": 6857, "_tokens[": 6858, "(doc": 6859, "_is_": 6860, "possible": 6861, "_tok_end_position": 6862, "all_doc": 6863, "_is_max_context": 6864, "apan": 6865, "_start_logit": 6866, "_end_logit": 6867, "_toenn": 6868, "_text`": 6869, "_logits": 6870, "_Bert": 6871, "cob": 6872, "_correspond": 6873, "ual": 6874, "_shapes": 6875, "_embed.weight": 6876, "_state['step": 6877, "_schedu": 6878, "_scheduled": 6879, "oded": 6880, "IZ": 6881, "_sentence": 6882, "pus": 6883, "_next(self.": 6884, ").strip()\n": 6885, "_forward": 6886, "_self.out_layers[0]": 6887, ".log": 6888, ".log_softmax": 6889, "_biases": 6890, "_tie": 6891, "_mems": 6892, "_[bsz,": 6893, "_self.config.d": 6894, "(lib": 6895, "_timedelta64": 6896, "_MultiIndex(levels=[": 6897, "_codes=[": 6898, "(['a',": 6899, "_MultiIndex\n": 6900, "_bool\n": 6901, "_ensure_platform_int(": 6902, "ategories": 6903, "_index.\n": 6904, "utureWarning": 6905, "_True.\n\n": 6906, "'],\n": 6907, "_setop": 6908, "_(GH": 6909, "(indexer": 6910, "='right": 6911, "_return_indexer": 6912, "_np.arange(len": 6913, "_dtype(dty:\n):\n": 6914, "_is_numeric": 6915, "_fro_o": 6916, "-31',": 6917, "_integer,": 6918, "_cover\n": 6919, "_function('": 6920, "_axis=0,": 6921, "_observ": 6922, "(gpr": 6923, "_limit_direction": 6924, "polate": 6925, "_fw_limit": 6926, "_'fast": 6927, "_'fastparquet": 6928, "_np.random": 6929, "_get_rooup": 6930, "_group_selection": 6931, "_proce": 6932, "_post": 6933, "_post_proess": 6934, "_nv.": 6935, "_nv.validate": 6936, "_self._cython": 6937, "_agg_general": 6938, "_attes": 6939, "enarr": 6940, "_`dtype": 6941, "_exclude": 6942, "_dict_like": 6943, "='1/1/": 6944, "='1/1/',,,": 6945, "='201": 6946, "__unpickle": 6947, "_frames": 6948, "_obs": 6949, "_``values": 6950, "_placement": 6951, "ai": 6952, "_n_ne": 6953, "_n_neigh": 6954, "_n_neighorr": 6955, "_person": 6956, "_(optional)": 6957, "_set\n": 6958, "i)\n": 6959, "_object.": 6960, "classi": 6961, "nown": 6962, "img,": 6963, "_matches": 6964, "iggh": 6965, "0]": 6966, ".encode": 6967, "(2": 6968, "_List": 6969, "_Loads": 6970, "_to.": 6971, "_(as": 6972, "_model:": 6973, "_use.": 6974, "_2d": 6975, "_much": 6976, "_images": 6977, "ton": 6978, "(p.": 6979, "_}": 6980, "Byte": 6981, "_Since": 6982, "ennsitive": 6983, "in_type": 6984, "Inerr": 6985, "_Null": 6986, "_precision": 6987, "_`obj": 6988, "8)\n": 6989, "_type(value": 6990, "_False)\n": 6991, "_type(obj": 6992, "(row,": 6993, "_(tuple": 6994, ".extend": 6995, "__has_nulltype": 6996, "_onnverter": 6997, "_return\n\n": 6998, "(obj)\n\n": 6999, "ecedd": 7000, "_name=None):\n": 7001, "_raises": 7002, "__make_type_verifier": 7003, "_n:": 7004, "_n\n": 7005, "_(name,": 7006, "_verify_acceptable_types": 7007, "_subclass": 7008, "i)\n\n": 7009, "Cont": 7010, "_to_arrow": 7011, "int32": 7012, ".float64": 7013, ".dec": 7014, "inary": 7015, "_timestamps": 7016, "_TypeError(\"U": 7017, "ield.": 7018, "mee,": 7019, "chem": 7020, "_t_t": 7021, "_timesammps": 7022, "_input\n": 7023, "eries\n": 7024, "_tz-naive": 7025, "Timestamp": 7026, ":\ne):\n": 7027, "_pdf.": 7028, "tem": 7029, "_timezone)\n": 7030, "mbigu": 7031, "_hour": 7032, "5-11": 7033, "5-11-01": 7034, "_He": 7035, "_Here": 7036, "_hel": 7037, "30:": 7038, "('t": 7039, "_field,": 7040, "_adding": 7041, "_schema.": 7042, "_a)": 7043, "(f)\n": 7044, "_functions\n": 7045, ".ne": 7046, "_name='": 7047, "__\"": 7048, "Training": 7049, "umma": 7050, "_self).s": 7051, "_self).summary": 7052, "_self).summary)\n": 7053, "_RuntimeError(\"": 7054, "valuates": 7055, "_dataset.\n\n": 7056, "_on,": 7057, "dataset": 7058, "(dataset": 7059, ".split(\"": 7060, "anc": 7061, "_spe": 7062, "edup": 7063, ".merge": 7064, "_c,": 7065, "_limit:\n": 7066, "_*=": 7067, "_iterator,": 7068, "_self.serializer.dump_sreeam": 7069, ".clear": 7070, "_release": 7071, "orry": 7072, "(pat": 7073, "s)]\n": 7074, "_[],": 7075, "or,": 7076, "_combined": 7077, "_Cal": 7078, "_useful": 7079, "_outfile": 7080, "TH": 7081, "ene": 7082, "odo": 7083, "_exc": 7084, "_sys.version": 7085, "Random": 7086, "34": 7087, "_format:": 7088, "_literal": 7089, "vev": 7090, "_preservesPartitiining=alse": 7091, "_preservesPartitiining=alsee": 7092, "_preservesPartitiining=alsee:\n\n": 7093, "_RDD,": 7094, "_4])\n": 7095, "_3]\n": 7096, "_4)\n": 7097, "_6\n": 7098, "(.ccole": 7099, "_fraction,": 7100, "_expected": 7101, "_probability": 7102, "_1]\n": 7103, "_sc.parallelize(range(10": 7104, "(False,": 7105, "_0.0,": 7106, "_rdd2": 7107, ".rind": 7108, ".rindint(": 7109, "_expected\n": 7110, "_driver's": 7111, "_10\n": 7112, "Count": 7113, "SampleSize": 7114, "_did": 7115, "_i.e.": 7116, "_sqrt(": 7117, "_suc": 7118, "_success": 7119, "_These": 7120, "_self.getNumPartitonns": 7121, "_intersection": 7122, ")\nt)\n\n": 7123, "_partitonner": 7124, ".collect)\n\n": 7125, "errr": 7126, "_key=lambda": 7127, "_self.partitonnBy": 7128, "(numPartition": 7129, "_5)]\n": 7130, "_2).collect()\n": 7131, "_RDD\n": 7132, "_const": 7133, "_1.0)\n": 7134, "_ascending:\n": 7135, "}.\n\n": 7136, "_y)": 7137, "_env": 7138, "Code": 7139, "_%d\"": 7140, "utf-8')": 7141, "_self.mapPartitonns(func": 7142, "_fail_on_stopiteration": 7143, "_sock_info": 7144, "_self.ctx._jvm.Python": 7145, "_ff": 7146, "_ffro": 7147, "ocket": 7148, "k_": 7149, "info,": 7150, "_associative": 7151, "_Current": 7152, "_y:": 7153, "_x\n": 7154, "Agg": 7155, "Aggre": 7156, "Aggreg": 7157, "Aggregate": 7158, "_fold": 7159, "buted": 7160, "Op,": 7161, "((0,": 7162, "_partially": 7163, "_5.0\n": 7164, "_2.0,": 7165, ".sum()\n": 7166, "_self.mapPartitonns(lambda": 7167, "_variance": 7168, "ched": 7169, "_Bu": 7170, "_int):\n": 7171, "number": 7172, "comparable": 7173, "_[0]": 7174, "2):\n": 7175, "_9,": 7176, "timate": 7177, ".filter": 7178, "PartsTo": 7179, "PartsToTry": 7180, "API": 7181, "(K": 7182, "_pack": 7183, "s/": 7184, "File(self,": 7185, "Class,": 7186, "s:\n\n": 7187, "_objects.\n": 7188, "_Sequence": 7189, "),()(),": 7190, "Flee": 7191, "/par": 7192, "0000": 7193, "_codec": 7194, "ypass": 7195, "_1)])\n": 7196, "_objects\n": 7197, "i)\n)\n": 7198, "_mergeValue": 7199, "ates\n": 7200, "s()\n\n": 7201, ".partitonnBy": 7202, "a\":": 7203, ").colle": 7204, "(other,": 7205, "ips": 7206, "1),": 7207, "_smallest": 7208, "_level.\n\n": 7209, "_tasks": 7210, "_`key": 7211, "look": 7212, "lookup": 7213, "_object_rdd": 7214, "_pot": 7215, "_approximate": 7216, ".1": 7217, "_8,": 7218, "__load_from": 7219, "(self._jc": 7220, "__._ddoc": 7221, "__._ddoc__": 7222, "__create_column": 7223, "__create_column_from": 7224, "erall": 7225, "_substring": 7226, "arrt": 7227, "_cols[0]\n": 7228, "_expl": 7229, "s.pop('": 7230, "buil": 7231, "._jspark": 7232, "otherwise": 7233, "_action": 7234, "_dataset:": 7235, "LabeledP": 7236, "_features.": 7237, "sparse": 7238, "Model(mo": 7239, "Model(model)": 7240, "Vecorr": 7241, "_instead.\n": 7242, "cls,": 7243, "=5,": 7244, "stances": 7245, "_Label": 7246, "-1}.\n": 7247, "_Min": 7248, "_(feature": 7249, "_Predict:": 7250, "_{0:": 7251, "_{1:": 7252, "auto": 7253, "_\"on": 7254, "ird": 7255, "_seed:\n": 7256, "rapp": 7257, "y,": 7258, "_Py4J": 7259, "bases": 7260, "())\n\n": 7261, "Nmee": 7262, "Columns": 7263, "_\"\"\"reatess": 7264, "s`.\n\n": 7265, "effull": 7266, "_DeprecationWarning)\n": 7267, "_TypeError(\"schema": 7268, "_auth_secret": 7269, "_connect": 7270, "_detail": 7271, "_+\n": 7272, ".str": 7273, "_indent": 7274, "63": 7275, "_)\n\n": 7276, "_Should": 7277, "__g": 7278, "_shared": 7279, "ellf": 7280, "04": 7281, "-means": 7282, "_k:\n": 7283, "_convergence": 7284, "_occur": 7285, "_s\\": 7286, "_:sub": 7287, "_:sub:`": 7288, "mmetric": 7289, "_factor": 7290, "each": 7291, "edict": 7292, "Topic": 7293, "_topics": 7294, "_obj):\n": 7295, "_Function": 7296, "Lib": 7297, "_self.transform": 7298, "_self._sc.defaultParallelism": 7299, "_numPartitonns)\n": 7300, "rint": 7301, "dstream": 7302, "rage": 7303, "poin": 7304, "pointing": 7305, "_ol": 7306, "(sl": 7307, "inv": 7308, "_initialRDD": 7309, "_None)\n\n": 7310, "_maxP": 7311, "_maxPattern": 7312, "_maxPatternLength": 7313, "seel": 7314, "_comple": 7315, "_frequent": 7316, "tial": 7317, "_Pre": 7318, "stta": 7319, "_\"\"\"onn": 7320, "ngg": 7321, "Unable": 7322, "_spark.createDataFrame(\n": 7323, "2\"": 7324, "_+---++\n\n": 7325, "----+\n": 7326, "heeck": 7327, "MA": 7328, "_processed": 7329, "_sdf.": 7330, "_\"\"\"Specif": 7331, "_\"\"\"Specifess": 7332, "_self._jseq": 7333, "_AND": 7334, "action": 7335, "_treat": 7336, "_3|\n": 7337, "_3.0\n": 7338, "_df.dtypes\n": 7339, "_regex": 7340, "=2)]\n": 7341, "_height=80),": 7342, "_height=85": 7343, "_'name": 7344, "']).select": 7345, "orrt": 7346, "_kwargs.get": 7347, "asic": 7348, "_stdd": 7349, "_stddev": 7350, "_given,": 7351, "_age|": 7352, "_accepts": 7353, "_DataFrame(self._jdf.": 7354, "drop": 7355, "_'any'": 7356, "_df4.": 7357, "_df4.na": 7358, "']:\n": 7359, "_ignored.\n": 7360, "_50|": 7361, "_to_replace": 7362, "to_replace": 7363, "_+----+------+\n--++\n": 7364, "_{0}": 7365, "(re": 7366, "Error):\n": 7367, "_first\n": 7368, "_`col": 7369, "_corr": 7370, "_names\n": 7371, "ren": 7372, "aming": 7373, "sorted": 7374, "iled": 7375, "abled.\n": 7376, "_e.g.,": 7377, "stdev": 7378, "_\"\":\n": 7379, "_Arg": 7380, "Deprecated": 7381, "_regularization": 7382, "_(label": 7383, "(hea": 7384, "_IndexError": 7385, "_empty\n": 7386, "less": 7387, "_newitem": 7388, "_up\n": 7389, "_determine": 7390, "quivalent": 7391, "(res": 7392, "ult,": 7393, "_case,": 7394, "_new_ja_o": 7395, "atistics.corr": 7396, "_subModel": 7397, "_estimatorParamMap": 7398, "_SparkContext._gateway": 7399, "_it.\n": 7400, "_sv": 7401, "_extra=None):\n": 7402, "_randomly": 7403, "_params.": 7404, "_extra:": 7405, "Metric": 7406, "__java_obj.set(\"": 7407, "ctool": 7408, "ctools.": 7409, "_[Row(d": 7410, "olol),": 7411, "(count": 7412, "(_to_jav_ccoummn": 7413, "_shift": 7414, "(_to_jav_ccolumn(c),),": 7415, "(start,": 7416, "2-28": 7417, "')],": 7418, "_atte": 7419, "(19": 7420, "(1997": 7421, "(1997,": 7422, "_format.\n\n": 7423, "year=": 7424, "_default\n": 7425, "stamp": 7426, "_micro": 7427, "cu": 7428, "_[Row(s=u'": 7429, "_'.": 7430, "d+)": 7431, "ja": 7432, "_array.": 7433, "_given\n": 7434, "_Extract": 7435, "_(\"key\",": 7436, "_c0": 7437, "_:class:`StructType`": 7438, "_datasource": 7439, "FieldNames": 7440, "_schema.\n": 7441, "asNond": 7442, "returnType": 7443, "_add_one": 7444, "ohn": 7445, "_(\"id\",": 7446, "_string\")": 7447, "_id|": 7448, "58": 7449, "_explicitly": 7450, "_udf(v": 7451, "_u''|": 7452, "_u'\\x01": 7453, "_u'\\x01'|": 7454, "_PythonEvalType.SQL": 7455, "_(For": 7456, "_``col0": 7457, "_DOUBLE``": 7458, "Single": 7459, "_quoting": 7460, "_deal": 7461, "_record,": 7462, "_overrid": 7463, "CP": 7464, ".textFile": 7465, "_encoding=en": 7466, "_encoding=enco": 7467, "_overr": 7468, "_quoted": 7469, "_beginning": 7470, "_(exclusive": 7471, "_Norm": 7472, "avva.": 7473, "avva.an": 7474, "avva.anng": 7475, "_`append": 7476, "_`error": 7477, "_\"\"\"Saess": 7478, "_overwrite": 7479, "(atth": 7480, "_file.\n": 7481, "_uni": 7482, "_uniqu": 7483, "emb": 7484, "_issue": 7485, "_cand": 7486, "(text):\n": 7487, "SPA": 7488, "_remaining": 7489, "_LIB": 7490, "s[0])\n": 7491, "__convert": 7492, "_xrange(len": 7493, "_MLUtils.": 7494, "_squared": 7495, "_hold": 7496, "_piece": 7497, "_(wh": 7498, "_decomp": 7499, "_DenseVector([": 7500, "Only": 7501, "_IndexedRowMatrix": 7502, "dex": 7503, "_Mat": 7504, "_Matrices": 7505, "_SparseMatrix": 7506, "_dm": 7507, "_ValueError:\n": 7508, "_array,": 7509, "_dense.dot": 7510, "_dense1": 7511, "_assume_unique": 7512, "_other.values": 7513, "_1-dimensional": 7514, "_representatonn.\n": 7515, "_referen": 7516, "_references": 7517, "_newlinalg.": 7518, "_buffer": 7519, "Transposed": 7520, ".reshape": 7521, "output": 7522, "_java_class": 7523, "=f": 7524, "_list\n": 7525, "_deduplicate": 7526, "_ImportError(\"": 7527, "_\".": 7528, "/p": 7529, ".sql.": 7530, "_gw.": 7531, "_2.3.0\n": 7532, "_java_array": 7533, "_slots": 7534, "_filled": 7535, "_self.profil": 7536, "_start:": 7537, "1\")\n": 7538, "Man": 7539, "Manage": 7540, "Manager": 7541, "_StreamingQuery": 7542, "Prediction": 7543, "_lock": 7544, "RDDServer": 7545, "_encryption": 7546, "avail": 7547, "available": 7548, "_testFile": 7549, "hdf": 7550, "_Direct": 7551, "UL": 7552, "_self._python": 7553, "_execution": 7554, "ernel": 7555, "NET": 7556, "(0.0,": 7557, "_shape,": 7558, "Config": 7559, "_original\n": 7560, "_decl": 7561, "Implement": 7562, "plied": 7563, "_kw": 7564, "sk": 7565, "_safe": 7566, "_error_msg": 7567, "\\n\\t": 7568, "_sdf_s": 7569, "_sdf_schema": 7570, "_outputodde": 7571, "trrea": 7572, "_exists": 7573, "var": 7574, "nado": 7575, "_dynam": 7576, "_interactive": 7577, "_obj=o": 7578, "_modname": 7579, "t)\n\n": 7580, "__ddict__": 7581, "_\"\"": 7582, "und": 7583, "_possible.\n": 7584, "ndarray,": 7585, "_TypeError('": 7586, "_spark.udf.register(\"": 7587, "_activeContext": 7588, "_File": 7589, "_load_tf_weights": 7590, "_load_tf_weights_in": 7591, "pt2": 7592, "_pytorch": 7593, "_print(\"Load": 7594, "_print(\"Loading": 7595, "_[m": 7596, "_torch.from": 7597, "_torch.from_numpy": 7598, "_\"r\",": 7599, "_encoding='": 7600, "_from_tf:\n": 7601, "olved": 7602, ".startswith('": 7603, "_keys)": 7604, "_{}:": 7605, "_embeddings": 7606, "_tokenizer.tokeni": 7607, "_tokenizer.tokeniam": 7608, "_tokenizer.tokeniamexx": 7609, "_Mod": 7610, "_tokens:": 7611, "_##": 7612, "_type_ids:": 7613, "entence": 7614, "[CLS": 7615, "_input_type_id": 7616, "s.apennd": 7617, "_tokens.": 7618, "_len(input_ids": 7619, "_logger.info(\"token": 7620, "ample(": 7621, "_paragrap": 7622, "estion": 7623, "impossible": 7624, "_pitit": 7625, "_pitition": 7626, "_logger.w": 7627, "_logger.warning": 7628, "_tokens,": 7629, "_segment_ids.append()\n\n": 7630, "seg": 7631, "_span_index": 7632, "inde": 7633, "_verbose_log": 7634, "_verbose_logg": 7635, "_verbose_logging": 7636, "esult": 7637, "_start_index": 7638, "_\"\"\n": 7639, "_`orig": 7640, "_ns_text": 7641, "[SEP]": 7642, "_label\n": 7643, "_dir,": 7644, "_i)\n": 7645, "_torch.": 7646, "_`bert-": 7647, "_self.init_weight": 7648, "_lr_scheduled": 7649, "_cat": 7650, "vocab": 7651, "_VOC": 7652, "_VOCA": 7653, "_VOCAB": 7654, "_laell": 7655, "_masked_toenn": 7656, "ampler": 7657, ".cat": 7658, "_[len": 7659, "_self.cutoff": 7660, "_head_logprob": 7661, "_tf_to_pt_map.update": 7662, "_tf_to_pt_map.update({": 7663, "_tf_to_pt_map.update({\n": 7664, "transformer/": 7665, ".tie": 7666, ".word": 7667, ".word_emb": 7668, "_softmax_output": 7669, "_target,": 7670, "_TypeError(\"cannot": 7671, "_values\n\n": 7672, "DatetimeIndex": 7673, "__maybe": 7674, "_names=['": 7675, "_MultiIndex(levels=[['": 7676, "_0],": 7677, "_['b',": 7678, "_index_like": 7679, "_len(values": 7680, "_is_object_dtype": 7681, "_allow_fil": 7682, "_allow_fill": 7683, "_na_rep": 7684, "_dtype=object": 7685, "_FutureWarning": 7686, "cobra": 7687, "_[201": 7688, "_[2018,": 7689, "_2019]": 7690, "kind": 7691, "level,": 7692, "tegrit": 7693, "tegrity": 7694, "(values):\n": 7695, "(values)": 7696, "ference": 7697, "_list-like\n": 7698, "_reindex": 7699, "_new_indexer": 7700, "_ensure_int64": 7701, "left',": 7702, "_|=": 7703, "_join_index": 7704, "lab": 7705, "_codes,": 7706, "_dtype=dtype,": 7707, "_ND": 7708, "_to_concat": 7709, "_label.\n\n": 7710, "_locs": 7711, "_levels,": 7712, "2000-03-1": 7713, "_slc": 7714, "__add": 7715, "timedelta": 7716, "__make_arithmetic_op(opeatorr": 7717, "_exclusion": 7718, "_axis=self.": 7719, "_0.21": 7720, "_0.21.0\n\n": 7721, "_0.20.": 7722, "_0.20.\n\n\n": 7723, "_'values": 7724, "_interp_limit": 7725, "_inds": 7726, "olyn": 7727, "olynomial": 7728, "_der": 7729, "_axis=ax)\n)\n": 7730, "_bw_limit": 7731, "_``io": 7732, "_2.8\n": 7733, "(quarterly)-": 7734, "(quarterly)-201": 7735, "_from_sequence": 7736, "_pre_proce": 7737, "_func('": 7738, "_ddof": 7739, "_isinndex": 7740, ".nth": 7741, "period": 7742, "_Mon": 7743, "__apply": 7744, "_`data`": 7745, "arrray": 7746, "_Interval": 7747, "_copy=c)\ny)\n": 7748, "Array.": 7749, "_freq='D": 7750, "_self._wrap_result": 7751, "_prep_values": 7752, "_axis_name": 7753, "_group_index": 7754, "_neigh": 7755, "_neighb": 7756, "iew": 7757, "_\u251c": 7758, "_\u251c\u2500\u2500": 7759, "_weigh": 7760, "_KN": 7761, "_KNN": 7762, "_returned.\n": 7763, "_path)": 7764, "_result.\n": 7765, "sest": 7766, "igghorr": 7767, "ually": 7768, "_css": 7769, "_image.\n\n": 7770, "_trimmed": 7771, "s[1": 7772, "[0]),": 7773, "_array\n\n": 7774, "__raw": 7775, "_array)\n": 7776, "_looking": 7777, "_detection": 7778, "_GPU": 7779, "_batch_size": 7780, "_batched": 7781, "image,": 7782, "large": 7783, "se,": 7784, "_Optional": 7785, "_ey": 7786, "_eye": 7787, "_know": 7788, "_slower": 7789, "_(one": 7790, "_Parses": 7791, "_format,": 7792, "int``": 7793, "_case-in": 7794, "_case-inennsitive": 7795, "_\")\n": 7796, "e,,": 7797, "__parse_datatype": 7798, "ys.": 7799, ">\"": 7800, "_etc": 7801, "_`obj`": 7802, "_(tuple,": 7803, "_list)):\n": 7804, "(names": 7805, "_1))\n": 7806, ".value": 7807, "__create_onnverter": 7808, "_x\n\n": 7809, ".items()": 7810, "StructType": 7811, "inring": 7812, "_ValueError:..\n\n": 7813, "().add": 7814, ").add": 7815, "(new_msg(\"": 7816, "Defined": 7817, "_assert_acceptabl_ttypes(obj)\n": 7818, "_got:": 7819, "68": 7820, "67": 7821, "pe,": 7822, "able,": 7823, "_Boolean": 7824, "timestamp": 7825, "_TypeError(\"Uns": 7826, "_TypeError(\"Unsup": 7827, "_TypeError(\"Unsuppor": 7828, "_TypeError(\"Unsupported": 7829, "=field": 7830, "_from_arr": 7831, "allue": 7832, "_timezone\n": 7833, "_require_innimum_pandas_versonn\n": 7834, "_require_innimum_pandas_versonn()\n\n": 7835, ")\n)\n)\n": 7836, "times": 7837, "_normalized": 7838, "_ambigu": 7839, "_E.g.": 7840, "meric": 7841, "merica/": 7842, ":00": 7843, "_either\n": 7844, "500": 7845, "_ts": 7846, "s=True": 7847, "__check_series_onnve_t_timesammps": 7848, "_data_type": 7849, "_define": 7850, "_struct1": 7851, "f1\",": 7852, "_StructType([": 7853, "_Any": 7854, "nal": 7855, "_{'name':": 7856, "_dict(zip": 7857, "_summary(self):\n": 7858, "_set.": 7859, "_self.hasSummary": 7860, "_self.hasSummary:\n": 7861, "_RuntimeError(\"No": 7862, "_self.__class__._amame": 7863, "_self.__class__._amame__)": 7864, "_dataset):\n": 7865, "_Test": 7866, "_self._call": 7867, "_self._call_java": 7868, "_self._call_java(\"": 7869, "_random.": 7870, "etet": 7871, "s]": 7872, "_spill_dir": 7873, "ator,": 7874, "_pdata": 7875, "fun,": 7876, "_partitonn,": 7877, "_get_used_memory()": 7878, "_limit()\n": 7879, "_Merge": 7880, "_better": 7881, "s(path": 7882, "mak": 7883, "_once,": 7884, "_files,": 7885, "_no\n": 7886, "(ss": 7887, "_possible\n": 7888, "move": 7889, "(osatath": 7890, ".inin": 7891, "scal": 7892, "allizer": 7893, "amam": 7894, "rator": 7895, "(ch": 7896, "(int(": 7897, "merge": 7898, "operator": 7899, "getter": 7900, "ellf,": 7901, "chh": 7902, "_very": 7903, "_because\n": 7904, "PY": 7905, "wi": 7906, ".flush": 7907, "h)\n": 7908, "_unit": 7909, "_20,": 7910, ".lower": 7911, "_s)\n": 7912, "[:-1": 7913, "_re.comp": 7914, "_re.compile": 7915, "_self.is_cached": 7916, "torage": 7917, "_sc.parallelize([\"": 7918, "_self.ctx.": 7919, "_self._jrdd": 7920, "_blocking": 7921, "gege": 7922, "_mapPartitonns": 7923, "_Deprecated": 7924, "_track": 7925, "Index\n": 7926, "(sc.parallelize": 7927, "_numPartitonns)": 7928, "[0])": 7929, "_\"N": 7930, "_weights,": 7931, "_len(rdd": 7932, "(sum": 7933, "(weight": 7934, "_random.rindint(": 7935, "_15,": 7936, "count()\n": 7937, "_enough": 7938, "_often": 7939, "_big": 7940, "_multipl": 7941, "_Po": 7942, "fraction": 7943, "_gamma": 7944, "_union(self,": 7945, "_self.getNumPartitonns()": 7946, "_ascending=True,": 7947, "_8),": 7948, "_\"5": 7949, "(numPartitions,": 7950, ").map": 7951, "_('2',": 7952, "_sc.parallelize(tmp": 7953, "_key=key": 7954, "isect": 7955, "_cartesian": 7956, "_[(0,": 7957, "_Popen": 7958, "lex": 7959, "_\"with": 7960, "_foreach": 7961, "_SCC": 7962, "_SCCallSite": 7963, "_SCCallSiteSyn": 7964, "_SCCallSiteSync": 7965, "_SCCallSiteSync(self.": 7966, "_css:\n": 7967, "_self.ctx._jvm.PythonRDD": 7968, "_commut": 7969, "_commutative": 7970, "_Currently": 7971, "_add\n": 7972, "_2)\n\n": 7973, "_5)\n": 7974, ")).": 7975, "_operations": 7976, "_then\n": 7977, "_call\n": 7978, "[1]))\n": 7979, "_key=None):\n": 7980, "_key:": 7981, "_comparing": 7982, "_histogram": 7983, "_sw": 7984, "_sorted,": 7985, "_(max": 7986, "(2)\n": 7987, "_'b',": 7988, "_maxv": 7989, "_i)": 7990, "ire": 7991, "_descending": 7992, "_[4,": 7993, "_it,": 7994, "_numPartsToTry": 7995, "_4\n": 7996, "context": 7997, "unJob": 7998, "Hadoop": 7999, "orratt": 8000, ".api.ponh": 8001, ".api.ponhon.": 8002, "_jconf": 8003, "_\"org.apache.hadoop.io.": 8004, "Clas": 8005, "=10": 8006, "pyspark": 8007, "(PickleSeriali": 8008, "Seri": 8009, "/part-": 8010, "))))\n": 8011, "\\\\n": 8012, "n'": 8013, ".saveAsTextFile": 8014, "ille": 8015, "_Using": 8016, "unicode": 8017, "(fun": 8018, "_keyed.": 8019, "bineByKey": 8020, "gl": 8021, "(.ccoleec)\n)\n": 8022, "ferr": 8023, "_we'": 8024, "s.key": 8025, "s,,\n\n": 8026, "_RDD(jrdd,": 8027, "ation,": 8028, "(b)\n": 8029, "inne": 8030, "(create": 8031, "_partitonns.\n\n": 8032, "_strat": 8033, "(sample[\"": 8034, ").collec": 8035, "._jrdd_deserializer": 8036, "ssum": 8037, "2),": 8038, "_2*": 8039, "_won't": 8040, "erialized": 8041, "(java_st": 8042, "vee": 8043, ".use": 8044, "Off": 8045, "Parallelism": 8046, "_lik": 8047, "_PySpark": 8048, "(('": 8049, "_Object": 8050, "_unpickling": 8051, "_1000\n": 8052, "(float": 8053, "cti": 8054, "_here\n": 8055, "_space": 8056, "LocalIterator": 8057, "_interface": 8058, "_2.4": 8059, "__to_seq(sc,": 8060, "Seq": 8061, "(self._jc,": 8062, "_Column(jc)\n": 8063, "(length": 8064, "_TypeError(\n": 8065, "_\"start": 8066, "_\"G": 8067, "_isinstance(cols[0],": 8068, "_desired": 8069, "_2.2\n": 8070, "_kwargs.pop('": 8071, "(al": 8072, "_``data": 8073, "_SparkSession.buil": 8074, "_SparkSession.builder": 8075, ".getOrCreate()\n": 8076, "._jsparkSe": 8077, "_invok": 8078, "_+-----+-----+\n--+--+\n": 8079, "_+-----+-----+\n--+--+\n-----": 8080, "_+-----+-----+\n--+--+\n---------+-": 8081, "_+-----+-----+\n--+--+\n---------+--+\n": 8082, "_+-----+-----+\n--+--+\n---------+--+\n---------": 8083, "--------------": 8084, "HEN": 8085, "_v)\n": 8086, ".window": 8087, "_WindowSpec": 8088, "_transform(self,": 8089, "vect": 8090, "centi": 8091, "_compon": 8092, "_Vectors.sparse": 8093, "verse": 8094, "_self.min": 8095, "Synon": 8096, "Synony": 8097, "Similar": 8098, "_path.\n": 8099, "(x))": 8100, "_categoricalFeareresInfo,\n": 8101, "_minIn": 8102, "_minInstances": 8103, "_minInstancesPer": 8104, "_minInstancesPerN": 8105, "_minInstancesPerNode": 8106, "_minInfo": 8107, "_minInfoG": 8108, "_minInfoGain": 8109, "_LabeledPoint.": 8110, "_k)\n": 8111, "_categori": 8112, "_categories\n": 8113, "_indexed": 8114, "_gain": 8115, "_values:": 8116, "LIN": 8117, "LINE": 8118, "})),\n": 8119, "}))\n": 8120, "Progress": 8121, "]])\n": 8122, "_featureSub": 8123, "_featureSubset": 8124, "_featureSubsetSt": 8125, "_featureSubsetStra": 8126, "_featureSubsetStrateg": 8127, "_\"auto": 8128, "_\"all": 8129, "eth": 8130, "_RandomF": 8131, "_RandomForest": 8132, "_Tree": 8133, "s=100,": 8134, "_Try": 8135, "_(k,": 8136, "_\"\"\"G": 8137, "_databases": 8138, "_self._jcat": 8139, "_self._jcatal": 8140, "pti": 8141, "_used.\n": 8142, "i()": 8143, "_tableName,": 8144, "=jcolumn": 8145, "External": 8146, "_``so": 8147, "_``source": 8148, "_``source``": 8149, "_instead.": 8150, "_source,": 8151, "_path\n": 8152, "_BarrierTaskContext": 8153, "_port,": 8154, "_\"B": 8155, "_deco": 8156, "func)\n": 8157, "$name": 8158, "_self).": 8159, "[1:]\n": 8160, "88": 8161, "tible": 8162, "_\"train": 8163, "||": 8164, ".cluster": 8165, "Tol": 8166, "igma": 8167, "_decayFactor": 8168, "_batche": 8169, "_particular": 8170, "Stat": 8171, "_describe": 8172, "_matching": 8173, "=10,": 8174, "Concentration": 8175, "Interval": 8176, "__py2java(sc,": 8177, "_(int,": 8178, "_documentation": 8179, "_rdd:": 8180, "_func\n": 8181, "_TransformFunction": 8182, ".call": 8183, "JavaS": 8184, "rageLe": 8185, "_En": 8186, "amamp": 8187, "_end):\n": 8188, "tiio": 8189, "_DStream(self._j": 8190, "reduceFunc": 8191, "_slideDuration,": 8192, "_joined": 8193, "Join": 8194, ".innd": 8195, "_minSupport=0.": 8196, "0000,": 8197, "[6": 8198, "_tb": 8199, "_len(t": 8200, "_lin": 8201, "_DataFrame,": 8202, "._sc,": 8203, "JSON": 8204, "_\"\"\"onnerr": 8205, "_string.\n\n": 8206, ":\"": 8207, "_:class:`pyspark.sql.types.StructTpee": 8208, "_extended": 8209, "_\"\"\"P": 8210, "innt": 8211, "_\"C": 8212, "._jd),,": 8213, "_eager": 8214, "_rows,": 8215, "_\"<": 8216, "Time,": 8217, "_watermark": 8218, "_cost": 8219, "parameter": 8220, "broadcast": 8221, "_+----+---": 8222, "_df.collect()\n": 8223, "_specified.\n\n": 8224, "MEMORY_AND": 8225, "_computation": 8226, "_executed": 8227, "_columns.": 8228, "_self.sql_ctx)\n": 8229, "_(num": 8230, "seelf._j": 8231, "_df.sample": 8232, "_is_withReplacement": 8233, "types": 8234, "_col,": 8235, "(co": 8236, "alele": 8237, "_ll": 8238, "_'int'),": 8239, "_self.schema": 8240, "Name):\n": 8241, "_'inner": 8242, "_name=u'Bob',": 8243, "_``left": 8244, "_df.join(df2,": 8245, "_'outer": 8246, "').collect()\n": 8247, "_['name',": 8248, "_cols:\n": 8249, "_kwargs.get('": 8250, "_asc": 8251, "(ascending": 8252, "_columns.\n\n": 8253, "_numer": 8254, "_numerical": 8255, "--+\n+\n": 8256, "---+\n": 8257, "_max\n": 8258, "5%": 8259, "_(string)": 8260, "=2,": 8261, "yle": 8262, "_(that": 8263, "_optionally": 8264, "_80|Alice|\n": 8265, "itting": 8266, "_non-null": 8267, "_isinstance(sub": 8268, "_isinstance(subset,": 8269, "na()": 8270, "_simply": 8271, "_Tom": 8272, "_Tom|\n": 8273, "=null": 8274, "_isinstance(to": 8275, "_isinstance(to_replac": 8276, "_isinstance(to_replace,": 8277, "_1])\n": 8278, "https://": 8279, "_Qu": 8280, "rorr": 8281, "approx": 8282, "_Cor": 8283, "_Correlation": 8284, "_Co": 8285, "ontion": 8286, "_string.\")\n": 8287, "_columns,": 8288, "rences": 8289, "_DataFrame.\n": 8290, "ls": 8291, "_f2": 8292, "_1.0),": 8293, ".columns": 8294, "_isinstance(result,": 8295, "ennabled'": 8296, "tempt": 8297, "bac": 8298, "(e))\n": 8299, "_warnings.war(m": 8300, "_warnings.war(mmsg": 8301, "_true,": 8302, "_PyArrow": 8303, "([],": 8304, "_jobs": 8305, "field.name": 8306, "09": 8307, "_{\n": 8308, "count(": 8309, "Variance": 8310, "_name=name,\n": 8311, "_Mak": 8312, "_Makes": 8313, ":*\n\n\n": 8314, "dec": 8315, "_mark": 8316, ">\n\n": 8317, "_initialWeights": 8318, "_heappop": 8319, "_reversed": 8320, "__he": 8321, "__heappop": 8322, "_heap[pos": 8323, "_down": 8324, "_childpos": 8325, "15": 8326, "_it:\n": 8327, "_Equivalent": 8328, "_iter(ite": 8329, "_iter(iterable": 8330, "_iter(iterable)\n": 8331, "_result:\n": 8332, "_[r": 8333, ".stat": 8334, "13": 8335, "_method='": 8336, "ensitive": 8337, "_new_ja_o_obj": 8338, "ethod": 8339, "_Vectors": 8340, "7\n": 8341, "_Statistics.corr": 8342, "ataat": 8343, "param,": 8344, "(keys,": 8345, "prod": 8346, "_from_ja": 8347, ".ne_aarray": 8348, "_persistence.\n": 8349, "=se": 8350, ".getC": 8351, "_copy(self,": 8352, "_Extra": 8353, "__amme": 8354, "_Wrap": 8355, "_functools.": 8356, "functonn": 8357, "39": 8358, "_['a']).select": 8359, "_numB": 8360, "_numBit": 8361, "_1).alias('": 8362, "943": 8363, "_tto_jav_c": 8364, "_row,": 8365, "_inclusive": 8366, "_spark.createDataFrame([('2015": 8367, "0',,],,": 8368, "cle": 8369, "n(": 8370, "_'d": 8371, "_spark.createDataFrame([('19": 8372, "_spark.createDataFrame([('1997": 8373, "_spark.createDataFrame([('1997-0": 8374, ">`": 8375, "_\"A": 8376, "_2.4\n": 8377, "_seconds": 8378, "_check_string": 8379, "_check_string_field": 8380, "hash": 8381, "_spark.createDataFrame([('abc": 8382, "_spark.createDataFrame([('abcd',": 8383, "123": 8384, "abcd": 8385, "_mode,": 8386, "at,": 8387, "_instr": 8388, "(str,": 8389, "_['s',])\n": 8390, "_type.\n\n": 8391, "_delimiter": 8392, "']\n]\n\n": 8393, "_r\"\"": 8394, "_r\"\"\"": 8395, "regexp": 8396, "(\\d+)": 8397, "(',": 8398, "_df.select(array": 8399, "_Column(sc._jvm.functions.array": 8400, "joined": 8401, "_array.\n": 8402, "_'''{\"": 8403, "=u'value": 8404, "_options=": 8405, "_options={}": 8406, "_options={}):\n": 8407, "_df.select(from_json": 8408, "_df.select(from_json(dfalllue,": 8409, ").alias(\"json": 8410, "]'": 8411, "_inferring": 8412, "('1": 8413, "_exception,": 8414, "`,\n": 8415, "__c": 8416, "_query.": 8417, "_incor": 8418, "_returnType:": 8419, "_\"J": 8420, "name)": 8421, "_+----------+-+\n-----": 8422, "_+----------+-+\n-----+\n": 8423, "_+----------+-+\n-----+\n----+-": 8424, "_+----------+-+\n-----+\n----+--+": 8425, "_+----------+-+\n-----+\n----+--+--+\n": 8426, "_+----------+-+\n-----+\n----+--+--+\n---": 8427, "_+----------+-+\n-----+\n----+--+--+\n-----+": 8428, "_+----------+-+\n-----+\n----+--+--+\n-----+\n": 8429, "_22": 8430, "_+-----------": 8431, "_+-------------+---": 8432, "_+-------------+-------+": 8433, "_+-------------+-------+---------": 8434, "--+-": 8435, "--+--": 8436, "--+----": 8437, "--+-----": 8438, "--+------": 8439, "+-": 8440, "+--": 8441, "+---": 8442, "+----": 8443, "+-----": 8444, "+------": 8445, "+-------": 8446, "+-------+": 8447, "+-------+-": 8448, "+-------+--": 8449, "+-------+---": 8450, "+-------+----": 8451, "+-------+-----": 8452, "+-------+------": 8453, "+-------+-------": 8454, "+-------+--------": 8455, "+--------": 8456, "+---------": 8457, "+----------": 8458, "-+-": 8459, "-+--": 8460, "-+---": 8461, "-+----": 8462, "-+-----": 8463, "-+------": 8464, "-+-------": 8465, "-+--------": 8466, "-+---------": 8467, "-+----------": 8468, "-+-----------": 8469, "-+------------": 8470, "-+-------------": 8471, "-+--------------": 8472, "-+---------------": 8473, "----------": 8474, "-----------": 8475, "------------": 8476, "-------------": 8477, "----------------": 8478, "-----------------": 8479, "------------------": 8480, "-------------------": 8481, "--------------------": 8482, "--------------+": 8483, "---------------": 8484, "-----------------+--": 8485, "+-----------": 8486, "+------------": 8487, "+-------------": 8488, "+--------------": 8489, "+---------------": 8490, "-+----------------": 8491, "-+-----------------": 8492, "-+------------------": 8493, "-+-------------------": 8494, "-+--------------------": 8495, "int|": 8496, "int>|": 8497, "_evalType": 8498, "_SCALAR": 8499, "integer": 8500, "=Tru)\n\n": 8501, "_returned\n": 8502, "_match\n": 8503, "assign": 8504, "atively": 8505, "_`numpy.": 8506, "_hard": 8507, "_positions": 8508, "also": 8509, "raand": 8510, "(l)\n": 8511, "(object": 8512, "_eval_type": 8513, "_PANDAS_UDF": 8514, "e)\n)\n": 8515, "_\"\"\"Add": 8516, "_\"\"\"Adds": 8517, "_option(s)": 8518, "_files:\n": 8519, "_DOUBLE``).\n": 8520, "_'python": 8521, "/test": 8522, "(format": 8523, "s(**": 8524, "_[path": 8525, "_prim": 8526, "_primiti": 8527, "_primitives": 8528, "_primitivesAs": 8529, "_primitivesAsStinng": 8530, "_prefers": 8531, "_prefersDecimal": 8532, "_allowCom": 8533, "_allowComment": 8534, "_allowUnquotedFieldNames": 8535, "_allowSingle": 8536, "_allowSingleQu": 8537, "_allowSingleQuot": 8538, "_allowSingleQuotes": 8539, "_allowNum": 8540, "_allowNumeric": 8541, "_allowNumericLead": 8542, "_allowNumericLeading": 8543, "_allowNumericLeadingZ": 8544, "_allowNumericLeadingZe": 8545, "_allowNumericLeadingZero": 8546, "_allowB": 8547, "_allowBack": 8548, "_allowBackslash": 8549, "_allowBackslashEsc": 8550, "_allowBackslashEscaping": 8551, "_allowBackslashEscapingAny": 8552, "_allowBackslashEscapingAnyChar": 8553, "_allowBackslashEscapingAnyCharac": 8554, "_allowUnquotedCont": 8555, "_allowUnquotedControl": 8556, "_allowUnquotedControlChar": 8557, "_dropField": 8558, "_dropFieldIf": 8559, "_dropFieldIfAll": 8560, "_dropFieldIfAllNull": 8561, "_<http://": 8562, "_Strings": 8563, "-point": 8564, "_quotes": 8565, "_leading": 8566, "_``columnNameOfCorruptRecord``": 8567, "_dateFormat:": 8568, "_formats\n": 8569, "_``java.time.format.DateTimeFermatter": 8570, "_``java.time.format.DateTimeFermatter``.": 8571, "_``yyyy--d": 8572, "_``yyyy--d-": 8573, "_``yyyy--d-.\n.\n": 8574, "_timestampFormat:": 8575, "_``java.time.format.DateTimeFermatt.\n": 8576, "_``java.time.format.DateTimeFermatt.\n``.": 8577, "_``java.time.format.DateTimeFermatt.\n``.\n": 8578, "_``yyyy-dddd": 8579, "_``yyyy-dddd'T": 8580, "_``yyyy-dddd'T'": 8581, "_``yyyy-dddd'T'H": 8582, "_``yyyy-dddd'T'HH:mm": 8583, "_``yyyy-dddd'T'HH:mm.S": 8584, "_``yyyy-dddd'T'HH:mm.S.": 8585, "_``yyyy-dddd'T'HH:mm.S.SS": 8586, "_``yyyy-dddd'T'HH:mm.S.SS``": 8587, "_``yyyy-dddd'T'HH:mm.S.SS``.\n.\n": 8588, "eed": 8589, "_encoding:": 8590, "_covers": 8591, "_``\\\\r``,": 8592, "_``\\\\r\\\\": 8593, "_``\\\\r\\\\```": 8594, "_``en": 8595, "_while\n": 8596, "=allow": 8597, "_dateFormat=date": 8598, "_dateFormat=dateF": 8599, "_dateFormat=dateFor": 8600, "_timestampFormat=": 8601, "_timestampFormat=time": 8602, "_timestampFormat=timestamp": 8603, "_timestampFormat=timestampFo": 8604, "_timestampFormat=timestampFoma": 8605, "=dr": 8606, "_override": 8607, "_lineSep=None):\n": 8608, "_lineSep=line)\n": 8609, "_lineSep=line)\np)\n": 8610, "_nanValue": 8611, "_positiveInf": 8612, "_negativeInf": 8613, "_maxCh": 8614, "_maxChars": 8615, "_maxCharsPer": 8616, "_maxCharsPerColumn": 8617, "_maxM": 8618, "_maxMalformed": 8619, "_maxMalformedLog": 8620, "_maxMalformedLogPer": 8621, "_maxMalformedLogPerPartitonn": 8622, "=onne,\n": 8623, "_enforceSchema": 8624, "_enti": 8625, "_entire": 8626, "_already\n": 8627, "_headers": 8628, "_account": 8629, "_whitespaces": 8630, "_skipped.": 8631, "=or": 8632, "=ornor": 8633, "=ornore": 8634, "=na": 8635, ".orc": 8636, "_table,": 8637, "_JD": 8638, "_JDBC": 8639, "_jprop": 8640, "(c,": 8641, "_``append": 8642, "_``append``:": 8643, "_``overwrite": 8644, "_``overwrite``:": 8645, "_``ignore": 8646, "_``ignore``:": 8647, "_``error``": 8648, "_``errorifexist": 8649, "_``errorifexists``": 8650, "_case):": 8651, "sionon": 8652, "_aws": 8653, "vice": 8654, "Id,": 8655, "idates": 8656, "porter": 8657, "men": 8658, "_(m": 8659, "upt": 8660, "_bl": 8661, "XX": 8662, "Impl": 8663, "_Support": 8664, "]')\n": 8665, "[0]\n\n": 8666, "_LIBSVM": 8667, "(nn": 8668, "_SparseVector):\n": 8669, "_len(v": 8670, "_tempfile": 8671, "[0,": 8672, "_parsed": 8673, "_:py:class:`pysarrk.ml.": 8674, "_:py:class:`pysarrk.ml.alllg.": 8675, "DenseVector": 8676, "_linear": 8677, "SG": 8678, "_higher": 8679, "_Is": 8680, "_(which": 8681, "off": 8682, "_self._java_matrix_wrapper.call(\"": 8683, "_computeQ": 8684, "_square": 8685, "Indexed": 8686, "_MatrixEn": 8687, "_sub-": 8688, "_Matrices.d": 8689, "_Matrices.dense": 8690, "_Matrices.dense(3,": 8691, "_4.0,": 8692, "_transposed": 8693, "transpose": 8694, "_[1.,": 8695, "='F": 8696, "_other.ndim": 8697, "_dense1.squared": 8698, "_dense1.squared_d": 8699, "_dense1.squared_distance": 8700, "_np.ndarray):\n": 8701, "(4,": 8702, "_values.size": 8703, "_np.ndarray)": 8704, "_data;": 8705, "_k1": 8706, "_k2": 8707, "_dtype=dt)\ne)\n": 8708, "_//": 8709, "s.size": 8710, "_neare": 8711, "_nearest": 8712, "_outputoll": 8713, "_sc._gateway.jvm.avva.anng": 8714, ".pro": 8715, "-sub": 8716, "-submit": 8717, "_home": 8718, "_scri": 8719, "_script": 8720, "_kwargs)\n": 8721, "_itself": 8722, "rt,": 8723, "_Perform": 8724, "_IP": 8725, ".ge": 8726, ".0.": 8727, "r_": 8728, "(module": 8729, "_hom": 8730, "_self._image": 8731, "_nChannels": 8732, "_array.shape\n": 8733, "=all": 8734, "_ratio": 8735, "_pylist": 8736, "_length,": 8737, "_1234": 8738, "_profiler": 8739, "_self.profiler": 8740, "_stats.": 8741, "lable": 8742, "Long": 8743, "_``start": 8744, "_``end": 8745, "_:class:`panda": 8746, "_:class:`pandas.": 8747, ").colect)\n\n\n": 8748, "_[{'": 8749, ".table": 8750, "(atta,": 8751, "avro": 8752, "oot": 8753, ".Spark": 8754, "(*args,": 8755, "Min": 8756, "SH": 8757, "SHO": 8758, "ensure": 8759, "_getattr(self,": 8760, "_logic": 8761, "AT": 8762, "(tempdir": 8763, ".txt": 8764, "_self,\n": 8765, "a-hdf": 8766, "_recordLength": 8767, "_rdds": 8768, "_accum": 8769, "_accum_param": 8770, "cumulator": 8771, "TP": 8772, "_suppress": 8773, "ID": 8774, "_transaction": 8775, "_f_": 8776, "year=201": 8777, "_dotNET": 8778, "rece": 8779, "receed": 8780, "ing``,": 8781, "olllow": 8782, "uniform": 8783, "_numCol": 8784, "VectorR(s(sc,": 8785, "na)\n": 8786, ".names": 8787, "kw": 8788, "_one\n": 8789, "_Series,": 8790, "_to.\n": 8791, "aitTermination": 8792, "_subsequent": 8793, ".aw": 8794, "_progress": 8795, "_spark.readStream": 8796, "_sdf.is": 8797, "_sdf.isStream": 8798, "_sdf.isStreaming\n": 8799, "_sdf.schema": 8800, "trream": 8801, "partitonn_id,": 8802, "AD": 8803, "EF": 8804, "IGHE": 8805, "IGHEST": 8806, "IGHEST_PROTOCOL": 8807, "_protocol=": 8808, "ackward": 8809, "_6:\n": 8810, "_dynamic": 8811, "qualname": 8812, "hy": 8813, "_regist": 8814, "_abc": 8815, "':\n\n": 8816, "patch": 8817, "_cache,": 8818, "(state": 8819, "_TypeError(\"Could": 8820, "_param):\n": 8821, "_resolve": 8822, "_newUid": 8823, "_)\n)\n": 8824, "s(\n": 8825, "('test": 8826, "('test')": 8827, "(test": 8828, "(test)": 8829, "(test)=4": 8830, "javaStringLength": 8831, "_checkpointPath": 8832, "_activePython": 8833, "_activePythonContext": 8834, "_jdstream": 8835, "_tensor": 8836, "_vars": 8837, "_tf.train": 8838, "quee": 8839, "_'bias": 8840, "_json_file": 8841, "mbedding": 8842, "pytorch": 8843, "ayerN": 8844, "ayerNorm": 8845, "_Params:\n": 8846, "_containing:\n": 8847, "_config.json": 8848, "_config.json`": 8849, "_PRETRAINED_MODEL_ARCHIVE_": 8850, "_PRETRAINED": 8851, "_CONF": 8852, "_CONFIG": 8853, "_MAP": 8854, "_cached_path": 8855, "archive": 8856, "_cache_dir=c": 8857, "_cache_dir=cchhe": 8858, "_cache_dir=cchhe_)\n": 8859, "_cache_dir=cchhe_)\nr)\n": 8860, "_resolved_config_file": 8861, "\".format(\n": 8862, "_local_metadata": 8863, "_module.": 8864, "_keys)\n": 8865, "error_msg": 8866, "_enumerate(ex": 8867, "_tokenizer.tokeniamexxam": 8868, "_Modifies": 8869, "_`tokens": 8870, "_[CLS],": 8871, "(tokens": 8872, "_`type": 8873, "_fine": 8874, "_input_type_ids.apennd": 8875, "_tokens.append(\"[SEP": 8876, "_tokens.append(\"[SEP])\n\n": 8877, "_Zero": 8878, "_text_a": 8879, "_is_whitespace": 8880, "_tokens)": 8881, "as_id": 8882, "_is_impossible": 8883, "_version_2_with_negative:\n": 8884, "_example.is": 8885, "_example.is_im": 8886, "_example.is_impo": 8887, "_example.is_impossi": 8888, "_example.is_impossibl": 8889, "_example.is_impossibl:\n\n": 8890, "_to_orig_map": 8891, "_doc_span.start": 8892, "o_s": 8893, "span": 8894, "(token": 8895, "_tokenized": 8896, "apanese": 8897, "ought": 8898, "_n_best": 8899, "_n_best_size": 8900, "edic": 8901, "ediconon": 8902, "_collections.OrderedDict": 8903, "_nbest_json": 8904, "_prel": 8905, "_prelim": 8906, "_prelim_": 8907, "_prelim_pred": 8908, "_prelim_predion": 8909, "_prelim_predioni": 8910, "_end_index": 8911, "_feature.token": 8912, "bestPrediction": 8913, "_best_non_": 8914, "_best_non_null": 8915, "example.": 8916, "unctu": 8917, "unctuation": 8918, "ipping": 8919, "_strip": 8920, "_tok_s": 8921, "_tok_s_to": 8922, "_tok_s_to_ns": 8923, "suees": 8924, "oice": 8925, "_[\"[SEP]": 8926, "_model.__class__._amame__,": 8927, "'.format": 8928, ".concaten": 8929, ".concatenate": 8930, "s_embed.weight": 8931, "Adam": 8932, "_exp_avg": 8933, "lip": 8934, "oment": 8935, "_bias_correction": 8936, "_output.ap": 8937, "_output.apndd": 8938, "F)": 8939, "(f)": 8940, "_token]": 8941, "[:c": 8942, "[:cap": 8943, "[:cap_length": 8944, "[:cap_length]": 8945, "_dtype=np.int64)\n": 8946, "_with_cont": 8947, "s[i,": 8948, "_care": 8949, "(self.c": 8950, "current_chunk": 8951, "_n_sample": 8952, "_torch.cat": 8953, "_self._compute": 8954, "_self._compute_logit": 8955, "_self._compute_logit(h": 8956, "_self._compute_logit(hidden": 8957, "_self.out_proj": 8958, "_F.log_softmax": 8959, "s[i],": 8960, "_weight_i": 8961, "_bias_i": 8962, "_iidx": 8963, "cluster": 8964, "_cutoff": 8965, "_cutoff_values": 8966, "_:m": 8967, "_:math": 8968, "_:math:`": 8969, "adaptive": 8970, "rit.out": 8971, ".dec_attn": 8972, "_\"ff": 8973, "_\"ff/": 8974, "_b.pos": 8975, "_b.pos_f": 8976, "_b.pos_ff.": 8977, "_tf_weight": 8978, "_classname.find('": 8979, "_self.init_weight(m": 8980, "_new_mem": 8981, "_last_hidden": 8982, "_libfreqs.": 8983, "(freq": 8984, "__offset": 8985, "_is_period": 8986, "_unique:\n": 8987, "__is_multiple": 8988, "__is_multiple(d": 8989, "__is_multiple(delta,": 8990, "__maybe_add": 8991, "__maybe_add_count": 8992, "__maybe_add_count('": 8993, "__ONE_M": 8994, "_fh": 8995, "_#1": 8996, "_MultiIndex\n\n": 8997, "([['": 8998, "']],\n": 8999, "_1]],\n": 9000, "_copy=False)\n": 9001, "_**attr": 9002, "_`self`": 9003, "_Series.": 9004, "_dtype='int64')\n": 9005, "_2019]],\n": 9006, "_'year'])\n": 9007, "_level=": 9008, "_left,": 9009, "_verify_integrity": 9010, "_freq=None": 9011, "_self[": 9012, "_recon": 9013, "_objects.\n\n": 9014, "_Changed": 9015, "equal": 9016, "(lval": 9017, "ifference": 9018, "_result_name": 9019, "_dtype='int64')\n\n": 9020, "_get_indexer": 9021, "_limit=": 9022, "_keyarr": 9023, "_non-unique": 9024, "_-1\n\n": 9025, "_MultiIndex):\n": 9026, "_'left',": 9027, "_else:": 9028, "_new_lev": 9029, "all():\n": 9030, "!\n": 9031, "numeric": 9032, "(msg.foratt(": 9033, "_NDFrame": 9034, "(values)\n": 9035, ".values_fro_o": 9036, ".values_fro_oobject": 9037, ".asof": 9038, "-31": 9039, "getitem": 9040, "_tz=": 9041, "'}\n": 9042, "_`values": 9043, ".isin": 9044, "_'right',": 9045, "_int\n": 9046, "_axis\n": 9047, "__make_comparison": 9048, "__make_comparison_op": 9049, "__make_comparison_op(opeatorr": 9050, "_opstr": 9051, "_\"{": 9052, "_np.datetime64": 9053, "__make_arithmetic_op(op": 9054, "__make_arithmetic_op(ops.": 9055, "ouerr": 9056, "_Grouper": 9057, "Inter": 9058, "gpr": 9059, "_is_categorical": 9060, "_foo": 9061, "/dummy": 9062, "/dummy.p": 9063, "/dummy.pk": 9064, "__f": 9065, "_values_to_mask": 9066, "linear',": 9067, "_yvalues": 9068, "_mid": 9069, "_NaNs": 9070, ".copy()\n\n": 9071, "_interpolate.": 9072, "_array_like\n": 9073, "_yi": 9074, "_dtype=None):\n": 9075, "_np.putmask(result,": 9076, "_NaN\n": 9077, "lling": 9078, "_GroupBy": 9079, "_boolean\n": 9080, "_'auto": 9081, "_'pyarrow',": 9082, "_binner": 9083, "_gr": 9084, "_groups,": 9085, "_to_long": 9086, "-suffix": 9087, "suffix": 9088, "IZE": 9089, "_3.2\n": 9090, "_cumcount_array": 9091, "_np.repeat": 9092, "_needs_values": 9093, "_needs_mask": 9094, "_df.groupby('A').": 9095, "__group_selection": 9096, "__group_selection_con": 9097, "__group_selection_context": 9098, "__group_selection_context(self):\n": 9099, "(axis": 9100, "_groupby_function('": 9101, "_00:0": 9102, "_00:03": 9103, "_df.groupby('a": 9104, "_df.groupby('a').": 9105, "_df.groupby('a').res": 9106, "_df.groupby('a').resample(": 9107, "_df.groupby('a').resample('": 9108, "3',,": 9109, "_result_isinndex": 9110, "_g.nth": 9111, "ngroup": 9112, "_shif": 9113, "_timedelta(1)\n": 9114, "_dates.\n": 9115, "_holiday_attes": 9116, "start_date": 9117, "_freq=": 9118, "_register_option": 9119, "_'{": 9120, "_OptionError": 9121, "_cursor": 9122, "rkey": 9123, "_===": 9124, "==": 9125, "===": 9126, "=====": 9127, "======": 9128, "=======": 9129, "========": 9130, "=========": 9131, "==========": 9132, "===========": 9133, "============": 9134, "=============": 9135, "==============": 9136, "===============": 9137, "================": 9138, "=================": 9139, "==================": 9140, "===================": 9141, "====================": 9142, "=====================": 9143, "======================": 9144, "=======================": 9145, "========================": 9146, "=========================": 9147, "==========================": 9148, "===========================": 9149, "_<Pandas": 9150, "_<PandasArray>\n": 9151, "_is_nested": 9152, "_is_nested_list_like": 9153, "_is_dict_like": 9154, "_pd.date_range(start='1/1/',,,": 9155, "_freq='D')\n\n": 9156, "_'2017-1": 9157, "='2017": 9158, "siness": 9159, "_sliced": 9160, "_libwindow": 9161, "_libwindow.": 9162, "_check_minp": 9163, "_cfunc": 9164, "_(1961,": 9165, "_(1962,": 9166, "_AX": 9167, "_AXIS": 9168, "_axes,": 9169, "_orient": 9170, "_{'items',": 9171, "_'items": 9172, "_Panel\n": 9173, "_plane": 9174, "_(panel": 9175, "_axis='": 9176, "_``values``": 9177, "_issubclass(v": 9178, "_issubclass(vtype,": 9179, "_model_save": 9180, "e',": 9181, "=False:\n\n": 9182, "_\u2502": 9183, "som": 9184, "ename": 9185, "g\n": 9186, "_os.path.isdir": 9187, "_face_recognition": 9188, "_image,": 9189, "_known_face_location": 9190, ".sqrt": 9191, "b')": 9192, "_is,": 9193, "unknown": 9194, "_ALL": 9195, "_encodings": 9196, "odd": 9197, "_closest": 9198, "_Image": 9199, "UTF-8": 9200, "_library": 9201, "_plain": 9202, "(cs": 9203, "[1]),": 9204, "_axis=1": 9205, "_'R": 9206, "(file": 9207, "_accurate": 9208, "_\"cnn": 9209, "UDA": 9210, "cs": 9211, ".y": 9212, "()]": 9213, ":2": 9214, "DataType": 9215, "_instead\n": 9216, "tiny": 9217, "_supports": 9218, "(Strelt": 9219, ")\nr": 9220, "_from_dd": 9221, "_from_ddl": 9222, "__parse_datatype_js": 9223, "__parse_datatype_js_s_sining": 9224, "_sc._jvm.org.apache.sarrk.sql": 9225, "_\"field": 9226, "(s)\n": 9227, "_32": 9228, "_Long": 9229, "_\"\"\"Inerr": 9230, "_'__": 9231, "(ob": 9232, "_Decimal": 9233, "_obj:\n": 9234, "%s)": 9235, "__infer_schema": 9236, "_names=None):\n": 9237, "_zip(names": 9238, "_zip(names,": 9239, "_any(": 9240, ".element": 9241, "(dataType": 9242, "_dataType.field": 9243, "_v,": 9244, "_IntegerType()": 9245, "(onn": 9246, "_StructType().add": 9247, "_new_": 9248, "_name)\n\n": 9249, "_obj))\n\n": 9250, "_User": 9251, "hasattr": 9252, "__')": 9253, "_verify_acceptable_types(obj)\n": 9254, "_-2": 9255, ".name,": 9256, "(v)\n": 9257, "_Binary": 9258, "_Arrow:": 9259, "(field.": 9260, "_nullable=field": 9261, "_nullable=field.n": 9262, "_nullable=field.n)\n": 9263, "_nullable=field.n)\nla": 9264, "_nullable=field.n)\nlabl": 9265, "_nullable=field.n)\nlable)\n": 9266, "_from_arro_t": 9267, "_float64": 9268, "_lstt": 9269, ".type": 9270, "heem": 9271, "_timezone):\n": 9272, "_aware": 9273, "__get_local": 9274, "_timestamps,": 9275, "_ArrayType(Timestamp": 9276, "_ArrayType(TimestampType())": 9277, "_ArrayType(TimestampType())?\n": 9278, "(s.dt": 9279, "_zone": 9280, "_is_datetime64_dtype": 9281, "_due": 9282, "New_Y": 9283, "New_Yor": 9284, "_2015-11-01": 9285, "fore,": 9286, "_datetime.datetime": 9287, "(201": 9288, "_11,": 9289, "_30": 9290, "(tz": 9291, "s=False": 9292, "izze": 9293, "(N": 9294, "loo": 9295, "_properly": 9296, "_Na": 9297, "Ite": 9298, "_class,": 9299, "(self._": 9300, "_on\n": 9301, "Lin": 9302, "_Evaluates": 9303, "_dataset:\n": 9304, "_isinstance(dataset,": 9305, "_General": 9306, ".get(\"": 9307, "_n):\n": 9308, "(n))": 9309, "Values(self,": 9310, "Combin": 9311, "_self._spill": 9312, "_self._next": 9313, "_self._get_spill_dir": 9314, "_os.path.ex": 9315, "_os.path.exist": 9316, "_streams": 9317, "_str(i": 9318, "_os.path.join(path,": 9319, "(p,": 9320, "_<<": 9321, "(osatath.inin": 9322, "_memory,": 9323, "_limit,": 9324, "_0)\n\n": 9325, "(iat": 9326, "tool": 9327, "tools.": 9328, "key=k": 9329, "_open(path,": 9330, "_consume": 9331, "pthh": 9332, "_delet": 9333, "_heapq": 9334, "IT": 9335, "atten": 9336, ".keys()": 9337, "_items,": 9338, "Sort": 9339, "_signal.": 9340, "IGH": 9341, "_SIG": 9342, "FL": 9343, "_latter": 9344, "_slow": 9345, ".flush()\n": 9346, "_portable_hash": 9347, "ially": 9348, "_1))": 9349, "_PY": 9350, "567": 9351, "_^": 9352, "(i)\n": 9353, "_sys.max": 9354, "_len(x)\n": 9355, "[-1]": 9356, ")[": 9357, "_re.": 9358, "IC": 9359, "LY": 9360, "toragevev": 9361, "toragevevel": 9362, "_RDD's": 9363, "_yet": 9364, "_javaStorageLevel": 9365, "_unpersist": 9366, "ent,": 9367, "_`b": 9368, "_checkpointed": 9369, "c',": 9370, "_preservesPartitiining)": 9371, ".flat": 9372, "(map": 9373, "(iterator)\n": 9374, "_rdd.map": 9375, "u)\n)\n": 9376, "_stacklevel=2)\n": 9377, "_3]).": 9378, "_size\n": 9379, "_generator": 9380, "_guaranteed": 9381, ".count()": 9382, "_rdd1": 9383, "s[-1": 9384, "_random.rindint(0,": 9385, "b,": 9386, "StD": 9387, "StDev": 9388, "collect()\n": 9389, "_RDD.": 9390, "_3])\n": 9391, "._jrdd_des": 9392, "_reserialize": 9393, "_performs": 9394, "_internally": 9395, "llll": 9396, "(not": 9397, "_sc.parallelize(tmp).sort": 9398, "(kv": 9399, "_constant": 9400, "_min(": 9401, "By(self,": 9402, "_self.key": 9403, "_one,": 9404, "_method.\n": 9405, "._jrd": 9406, "groupByKey": 9407, "_stdout": 9408, "Pi": 9409, "_Appl": 9410, "x)\n": 9411, "_list(_": 9412, "_list(_loa": 9413, "_list(_loa_ffro": 9414, "_list(_loa_ffro_ss": 9415, "_list(_loa_ffro_ssocket": 9416, "_list(_loa_ffro_ssocket(_i": 9417, "_list(_loa_ffro_ssocket(_ik_": 9418, "_list(_loa_ffro_ssocket(_ik_info,": 9419, "_Red": 9420, "_multi-": 9421, "_y\n": 9422, "_-1,": 9423, "_rdd.treeReduce": 9424, "_value.\n\n": 9425, "_x[1]": 9426, "Value,": 9427, "_zeroValue,": 9428, "_partitonns,": 9429, "_alloc": 9430, "_som": 9431, "_vals,": 9432, "_combOp": 9433, "_rdd.treeAggregate": 9434, "_rdd.treeAggregate(0,": 9435, "(ier": 9436, "_partiallyA": 9437, "_partiallyAggreg": 9438, "_partiallyAggregated": 9439, "_5.0,": 9440, "Counter": 9441, "(left": 9442, ".mer": 9443, ").reduce": 9444, "_evenly": 9445, "_spaced": 9446, "_must\n": 9447, "_6])\n": 9448, "_isnan": 9449, "tered": 9450, "_raise\n\n": 9451, "(step": 9452, "_1)\n\n": 9453, "ittem": 9454, "_defaultdict": 9455, "_num):\n": 9456, "_estimate": 9457, "_needed\n": 9458, "_6])": 9459, "kee": 9460, "items)": 9461, "_actually": 9462, "_50%": 9463, "Up": 9464, ".runJob": 9465, "s[:": 9466, "APIHadoop": 9467, "RDD[": 9468, "(K,": 9469, "_conf:": 9470, "ToJava": 9471, "_specified.": 9472, "_SparkContext\n": 9473, "edRDD": 9474, "_mech": 9475, "_mechan": 9476, "_mechanism": 9477, "_Pyrol": 9478, "lectt": 9479, "utoB": 9480, "_batchSize)\n": 9481, "_tempFile.close()\n": 9482, "_''.join": 9483, "=h": 9484, "_bypass": 9485, "_keyed._jrdd": 9486, "_before\n": 9487, "Loc": 9488, "(n)": 9489, "_n,": 9490, "_mergeValue,": 9491, ").collect())\n": 9492, "_serializer)\n": 9493, ".groupByKey": 9494, "Valess": 9495, "_retain": 9496, "_\"y": 9497, "lat": 9498, "_fractions,": 9499, "s())": 9500, "_(\"c": 9501, "_(\"c\",": 9502, "_5],": 9503, "_possibly": 9504, "(10,": 9505, "_jrdd_deserializer": 9506, "_etc.": 9507, "_ordering": 9508, "(it,": 9509, "]):\n": 9510, "OM": 9511, "_Once": 9512, "_key):\n": 9513, "_JavaRDD": 9514, "_potentially": 9515, "JavaD": 9516, "Float": 9517, ".conf": 9518, "SD": 9519, "2337": 9520, "trr": 9521, "F)\n": 9522, "_2.4.0\n": 9523, "_`cols": 9524, "s.toList": 9525, "__create_column_from_li": 9526, "__create_column_from_lierall": 9527, "tively": 9528, ".\"\n": 9529, "_self._jc": 9530, "_[Row(age=5,": 9531, "_positional": 9532, "metadata": 9533, "_argument.\n\n": 9534, "=5)]\n": 9535, "(getattr": 9536, "_\"as": 9537, "('age": 9538, "2'),": 9539, ".cast": 9540, "_DataType):\n": 9541, "_:func:`pyspark.sql": 9542, "_:func:`pyspark.sql.f": 9543, "_:func:`pyspark.sql.funonion": 9544, "_expression.\n\n": 9545, "CASE": 9546, "condition,": 9547, ")\nto": 9548, "_jmodel": 9549, "fit": 9550, "_treated": 9551, "_data)\n": 9552, "term": 9553, "_word,": 9554, "sine": 9555, "(word": 9556, "_load(cls,": 9557, ".fatt": 9558, "_Word": 9559, "_maxBins=": 9560, "_Labels": 9561, "_categoricalFeareresInfo:\n": 9562, "_arity": 9563, "_k-1}.\n": 9564, "_calculation.\n": 9565, "_maxDepth:\n": 9566, "_node,": 9567, "_nodes).\n": 9568, "_maxBins:\n": 9569, "_node.\n": 9570, "_32)\n": 9571, "_Minimum": 9572, "_split.\n": 9573, "_usage:\n\n": 9574, "_pyspark.mllib.tree": 9575, "_{})\n": 9576, "_print(model": 9577, "bug": 9578, "_<B": 9579, "_<BL": 9580, "_<BLAN": 9581, "_<BLANK": 9582, "_<BLANKLINE": 9583, "_<BLANKLINE>\n": 9584, "_[0.0]": 9585, "_model.predict(rdd": 9586, "_model.predict(rdd).collec": 9587, "_model.predict(rdd).collec)\n)\n": 9588, "_cls._train": 9589, "_cls._train(data,": 9590, "_maxDepth,": 9591, "_pyspark.mllib.inn": 9592, "_pyspark.mllib.innal": 9593, "(sc.par": 9594, "(sc.paral": 9595, "(sc.paralell": 9596, "(sc.paralellize": 9597, "spar": 9598, "_dda": 9599, "(Sparse": 9600, "Vecorr(2,": 9601, "_[0.0,": 9602, "_time.\n": 9603, "_{},": 9604, "([2": 9605, "[3": 9606}